{"Ā": 1, "ā": 2, "Ă": 3, "ă": 4, "Ą": 5, "ą": 6, "Ć": 7, "ć": 8, "Ĉ": 9, "ĉ": 10, "Ċ": 11, "ċ": 12, "Č": 13, "č": 14, "Ď": 15, "ď": 16, "Đ": 17, "đ": 18, "Ē": 19, "ē": 20, "Ĕ": 21, "ĕ": 22, "Ė": 23, "ė": 24, "Ę": 25, "ę": 26, "Ě": 27, "ě": 28, "Ĝ": 29, "ĝ": 30, "Ğ": 31, "ğ": 32, "Ġ": 33, "!": 34, "\"": 35, "#": 36, "$": 37, "%": 38, "&": 39, "'": 40, "(": 41, ")": 42, "*": 43, "+": 44, ",": 45, "-": 46, ".": 47, "/": 48, "0": 49, "1": 50, "2": 51, "3": 52, "4": 53, "5": 54, "6": 55, "7": 56, "8": 57, "9": 58, ":": 59, ";": 60, "<": 61, "=": 62, ">": 63, "?": 64, "@": 65, "A": 66, "B": 67, "C": 68, "D": 69, "E": 70, "F": 71, "G": 72, "H": 73, "I": 74, "J": 75, "K": 76, "L": 77, "M": 78, "N": 79, "O": 80, "P": 81, "Q": 82, "R": 83, "S": 84, "T": 85, "U": 86, "V": 87, "W": 88, "X": 89, "Y": 90, "Z": 91, "[": 92, "\\": 93, "]": 94, "^": 95, "_": 96, "`": 97, "a": 98, "b": 99, "c": 100, "d": 101, "e": 102, "f": 103, "g": 104, "h": 105, "i": 106, "j": 107, "k": 108, "l": 109, "m": 110, "n": 111, "o": 112, "p": 113, "q": 114, "r": 115, "s": 116, "t": 117, "u": 118, "v": 119, "w": 120, "x": 121, "y": 122, "z": 123, "{": 124, "|": 125, "}": 126, "~": 127, "ġ": 128, "Ģ": 129, "ģ": 130, "Ĥ": 131, "ĥ": 132, "Ħ": 133, "ħ": 134, "Ĩ": 135, "ĩ": 136, "Ī": 137, "ī": 138, "Ĭ": 139, "ĭ": 140, "Į": 141, "į": 142, "İ": 143, "ı": 144, "Ĳ": 145, "ĳ": 146, "Ĵ": 147, "ĵ": 148, "Ķ": 149, "ķ": 150, "ĸ": 151, "Ĺ": 152, "ĺ": 153, "Ļ": 154, "ļ": 155, "Ľ": 156, "ľ": 157, "Ŀ": 158, "ŀ": 159, "Ł": 160, "ł": 161, "¡": 162, "¢": 163, "£": 164, "¤": 165, "¥": 166, "¦": 167, "§": 168, "¨": 169, "©": 170, "ª": 171, "«": 172, "¬": 173, "Ń": 174, "®": 175, "¯": 176, "°": 177, "±": 178, "²": 179, "³": 180, "´": 181, "µ": 182, "¶": 183, "·": 184, "¸": 185, "¹": 186, "º": 187, "»": 188, "¼": 189, "½": 190, "¾": 191, "¿": 192, "À": 193, "Á": 194, "Â": 195, "Ã": 196, "Ä": 197, "Å": 198, "Æ": 199, "Ç": 200, "È": 201, "É": 202, "Ê": 203, "Ë": 204, "Ì": 205, "Í": 206, "Î": 207, "Ï": 208, "Ð": 209, "Ñ": 210, "Ò": 211, "Ó": 212, "Ô": 213, "Õ": 214, "Ö": 215, "×": 216, "Ø": 217, "Ù": 218, "Ú": 219, "Û": 220, "Ü": 221, "Ý": 222, "Þ": 223, "ß": 224, "à": 225, "á": 226, "â": 227, "ã": 228, "ä": 229, "å": 230, "æ": 231, "ç": 232, "è": 233, "é": 234, "ê": 235, "ë": 236, "ì": 237, "í": 238, "î": 239, "ï": 240, "ð": 241, "ñ": 242, "ò": 243, "ó": 244, "ô": 245, "õ": 246, "ö": 247, "÷": 248, "ø": 249, "ù": 250, "ú": 251, "û": 252, "ü": 253, "ý": 254, "þ": 255, "ÿ": 256, "<|endoftext|>": 0, "Ġt": 257, "he": 258, "Ġa": 259, "Ġs": 260, "Ġw": 261, "Ġthe": 262, "nd": 263, "ed": 264, "Ġb": 265, "Ġto": 266, "Ġand": 267, "Ġh": 268, "Ġf": 269, "in": 270, "ĠT": 271, "Ġwa": 272, "re": 273, "it": 274, "ou": 275, "Ġl": 276, "Ġd": 277, "Ġc": 278, "Ġp": 279, "ay": 280, "Ġm": 281, "er": 282, "Ġwas": 283, "om": 284, "ĠThe": 285, "Ġhe": 286, "is": 287, "Ġn": 288, "ar": 289, "im": 290, "on": 291, "Ġsa": 292, "id": 293, "ll": 294, "Ġha": 295, "Ġg": 296, "at": 297, "ing": 298, "ĠS": 299, "ot": 300, "en": 301, "an": 302, "le": 303, "or": 304, "ir": 305, "am": 306, "ĠH": 307, "et": 308, "Ġth": 309, "Ġit": 310, "ig": 311, "ĠThey": 312, "Ġin": 313, "il": 314, "ĠHe": 315, "Ġpl": 316, "Ġ\"": 317, "ow": 318, "ri": 319, "ver": 320, "Ġbe": 321, "ut": 322, "Ġu": 323, "Ġsaid": 324, "ith": 325, "pp": 326, "Ġplay": 327, "Ġwith": 328, "Ġday": 329, "Ġy": 330, "On": 331, "Ġo": 332, "oo": 333, "Ġr": 334, "ked": 335, "ce": 336, "ĠI": 337, "Ġher": 338, "Ġhis": 339, "ld": 340, "ĠShe": 341, "ĠTim": 342, "ke": 343, "Ġst": 344, "Ġe": 345, "Ġbig": 346, "nt": 347, "Ġyou": 348, "st": 349, "very": 350, "ck": 351, "ve": 352, "end": 353, "Ġhapp": 354, "un": 355, "Ġon": 356, "riend": 357, "Ġfriend": 358, "ĠL": 359, "all": 360, "ily": 361, "Ġthey": 362, "Ġwe": 363, "Ġnot": 364, "Ġhad": 365, "Ġli": 366, "Ġwant": 367, "her": 368, "Ġup": 369, "Ġof": 370, "itt": 371, "ad": 372, "se": 373, "ĠB": 374, "Ġdo": 375, "Ġhappy": 376, "ĠM": 377, "ent": 378, "Ġvery": 379, "es": 380, "Ġsaw": 381, "Ġthat": 382, "One": 383, "'s": 384, "Ġsh": 385, "Ġmom": 386, "ould": 387, "Ġfor": 388, "ittle": 389, "Ġlittle": 390, "Ġso": 391, "Ġne": 392, "ch": 393, "Ġshe": 394, ".\"": 395, "ime": 396, "Ġk": 397, "Ġnam": 398, "Ġtime": 399, "ound": 400, "Ġthere": 401, "Ġnamed": 402, "Ġsm": 403, "Ġbo": 404, "ĠLily": 405, "Ġwere": 406, "ht": 407, "The": 408, "Ġbut": 409, "out": 410, "Ġwanted": 411, "ved": 412, "!\"": 413, "ĠTom": 414, "Ġfriends": 415, "ird": 416, "el": 417, "al": 418, "ake": 419, "Ġan": 420, "Ġbird": 421, "ug": 422, "ĠIt": 423, "Ġtoo": 424, "ome": 425, "ide": 426, "Ġhel": 427, "Ġwent": 428, "Ġis": 429, "Ġwh": 430, "Once": 431, "Ġhelp": 432, "Ġlo": 433, "Ġall": 434, "Ġloo": 435, "ue": 436, "ry": 437, "ter": 438, "ĠA": 439, "Ġupon": 440, "ore": 441, "ill": 442, "ind": 443, "Ġfun": 444, "Ġat": 445, "ra": 446, "Ġtoy": 447, "get": 448, "ame": 449, "Ġas": 450, "Ġj": 451, "Ġdid": 452, "Ġre": 453, "gether": 454, "ur": 455, "Ġse": 456, "Ġtogether": 457, "Ġba": 458, "ood": 459, "Ġcat": 460, "ly": 461, "Ġtre": 462, "ic": 463, "art": 464, "Ġcan": 465, "Ġdog": 466, "Ġcould": 467, "ark": 468, "Ġare": 469, "ec": 470, "Ġtheir": 471, "ard": 472, "?\"": 473, "irl": 474, "my": 475, "Ġle": 476, "Ġhim": 477, "way": 478, "Ġgirl": 479, "Ġplayed": 480, "ain": 481, "Ġkn": 482, "Ġgo": 483, "Ġout": 484, "Ġfr": 485, "Ġball": 486, "hed": 487, "Ġthem": 488, "Ġro": 489, "'t": 490, "hen": 491, "um": 492, "ax": 493, "Ġsad": 494, "ul": 495, "Ġhave": 496, "Ġboy": 497, "Ġman": 498, "other": 499, "Ġtree": 500, "Ġloved": 501, "Ġcl": 502, "oug": 503, "Ġlooked": 504, "one": 505, "Ġfound": 506, "Ġsp": 507, "Ġsc": 508, "ĠSue": 509, "hing": 510, "are": 511, "Ġback": 512, "own": 513, "Ġlike": 514, "ĠMax": 515, "ight": 516, "ful": 517, "side": 518, "Ġme": 519, "Ġbec": 520, "Ġpark": 521, "op": 522, "Ġstart": 523, "ong": 524, "elt": 525, "Ġmake": 526, "Ġwould": 527, "You": 528, "Ġfa": 529, "ĠOne": 530, "ĠW": 531, "Ġcar": 532, "Ġfelt": 533, "ell": 534, "Ġliked": 535, "Ġla": 536, "Ġnew": 537, "ouse": 538, "round": 539, "omet": 540, "ice": 541, "ĠBen": 542, "Ġno": 543, "Ġsee": 544, "ĠBut": 545, "Ġstarted": 546, "ared": 547, "Ġasked": 548, "ought": 549, "ĠSam": 550, "Ġcame": 551, "Ġal": 552, "iled": 553, "Ġother": 554, "Ġag": 555, "Ġsay": 556, "Ġgood": 557, "Ġsmall": 558, "Ġsomet": 559, "Ġbr": 560, "ss": 561, "ried": 562, "Ġsmiled": 563, "ings": 564, "ia": 565, "ade": 566, "ob": 567, "pot": 568, "Ġfind": 569, "Ġwor": 570, "Ġaway": 571, "ened": 572, "Ġco": 573, "Ġthought": 574, "Ġfrom": 575, "Ġhome": 576, "Ġex": 577, "Ġwhat": 578, "Ġmade": 579, "Ġsomething": 580, "ag": 581, "Ġput": 582, "Ġmu": 583, "uc": 584, "Ġevery": 585, "arn": 586, "ook": 587, "Ġplaying": 588, "ĠF": 589, "Ġran": 590, "Ġwal": 591, "ach": 592, "Ġagain": 593, "ĠSpot": 594, "ile": 595, "Ġsome": 596, "Ġwill": 597, "ave": 598, "king": 599, "Ġlearn": 600, "Ġlaug": 601, "ie": 602, "Ġtook": 603, "Ġdown": 604, "Ġhouse": 605, "ĠYou": 606, "Ġscared": 607, "ish": 608, "Ġfl": 609, "ure": 610, "dd": 611, "Ġpr": 612, "ny": 613, "ĠJ": 614, "Ġyour": 615, "Ġthings": 616, "Ġsw": 617, "Ġbl": 618, "Ġmy": 619, "ick": 620, "if": 621, "Ġtoys": 622, "ep": 623, "oud": 624, "ĠMia": 625, "Ġfe": 626, "ble": 627, "Ġch": 628, "ret": 629, "Ġaround": 630, "Ġbox": 631, "Ġlived": 632, "Ġwhen": 633, "pped": 634, "uck": 635, "Ġsun": 636, "Ġthen": 637, ",\"": 638, "us": 639, "ty": 640, "ap": 641, "Ġsays": 642, "ank": 643, "Tim": 644, "ump": 645, "Ġget": 646, "ucy": 647, "ist": 648, "Ġkne": 649, "Ġknow": 650, "Th": 651, "Ġtried": 652, "Ġlot": 653, "oth": 654, "ust": 655, "Ġgot": 656, "ited": 657, "Ġwho": 658, "Ġab": 659, "as": 660, "nder": 661, "Ġabout": 662, "Ġany": 663, "Ġred": 664, "Ġmany": 665, "ace": 666, "Ġknew": 667, "Ġmore": 668, "Ġint": 669, "Ġcare": 670, "ive": 671, "ise": 672, "Lily": 673, "Ġdec": 674, "Ġpo": 675, "Ġpret": 676, "Ġlearned": 677, "Ġpic": 678, "Ġlook": 679, "ally": 680, "au": 681, "qu": 682, "Ġop": 683, "ĠLucy": 684, "na": 685, "ous": 686, "Ġwater": 687, "Ġho": 688, "Ġta": 689, "Ġoutside": 690, "Ġbecame": 691, "Ġhug": 692, "fter": 693, "ause": 694, "Ġbest": 695, "Ġeat": 696, "ĠD": 697, "ways": 698, "Ġexc": 699, "ant": 700, "Ġlaughed": 701, "ect": 702, "urp": 703, "Ġun": 704, "Ġpe": 705, "ite": 706, "ĠAnd": 707, "Ġalways": 708, "Ġdad": 709, "Ġroom": 710, "ĠSo": 711, "Ġshow": 712, "Ġv": 713, "Ġgre": 714, "Ġbecause": 715, "Ġdecid": 716, "Ġke": 717, "Ġinto": 718, "Ġjump": 719, "Ġboth": 720, "Ġdecided": 721, "ĠMom": 722, "fe": 723, "âĢ": 724, "Ġone": 725, "Ġthis": 726, "ĠBob": 727, "Ġnice": 728, "They": 729, "Ġfast": 730, "ers": 731, "Tom": 732, "Ġrun": 733, "udd": 734, "Ġam": 735, "Ġexcited": 736, "Ġfeel": 737, "Ġsk": 738, "ĠE": 739, "iny": 740, "Yes": 741, "Ġlong": 742, "Ġmo": 743, "nna": 744, "ull": 745, "Ġstr": 746, "Ġtake": 747, "urpr": 748, "our": 749, "Ġsurpr": 750, "Ġtold": 751, "Wh": 752, "ink": 753, "Ġinside": 754, "Ġmuch": 755, "Ġsor": 756, "Ġtow": 757, "Ġpretty": 758, "imal": 759, "Ġeach": 760, "Ġanimal": 761, "etter": 762, "Ġor": 763, "Ġfish": 764, "Ġgra": 765, "bb": 766, "Ġgave": 767, "Ġhow": 768, "lew": 769, "Ġthan": 770, "ven": 771, "But": 772, "Ġsl": 773, "Ġtr": 774, "ged": 775, "Ġunder": 776, "Ġneed": 777, "Ġold": 778, "og": 779, "Ġsorry": 780, "ge": 781, "ess": 782, "Ġrock": 783, "ĠC": 784, "Ġbear": 785, "ft": 786, "ara": 787, "urt": 788, "ĠHis": 789, "Ġcle": 790, "ised": 791, "Ġclo": 792, "Ġfood": 793, "Ġhand": 794, "ro": 795, "here": 796, "Ġwalked": 797, "ĠWe": 798, "Ġanimals": 799, "Ġte": 800, "ff": 801, "Ġhig": 802, "Ġkind": 803, "gry": 804, "Ġide": 805, "Ġjust": 806, "Ġca": 807, "Ġwat": 808, "Ġdidn": 809, "ving": 810, "Ġhappened": 811, "urn": 812, "Ġbetter": 813, "Ġtry": 814, "Ġnear": 815, "ack": 816, "Ġsky": 817, "Ġfi": 818, "Ġidea": 819, "Ġshare": 820, "Ġlist": 821, "Ġheard": 822, "Ġus": 823, "Mom": 824, "Ġbug": 825, "rom": 826, "Ġcareful": 827, "Ġflow": 828, "ate": 829, "by": 830, "Ġtw": 831, "Ġen": 832, "ine": 833, "ched": 834, "ĠAmy": 835, "Ġif": 836, "Ġits": 837, "pect": 838, "pl": 839, "Ġbu": 840, "Ġnever": 841, "eci": 842, "Ġfly": 843, "ase": 844, "ion": 845, "rm": 846, "Ġlet": 847, "Ġcom": 848, "Ġflew": 849, "lf": 850, "ople": 851, "ex": 852, "Thank": 853, "Ġstor": 854, "ream": 855, "Ġra": 856, "Ġgr": 857, "ĠTh": 858, "ecial": 859, "Ġspecial": 860, "Ġtal": 861, "Ġclean": 862, "Ġshiny": 863, "Ġlots": 864, "more": 865, "Ġanymore": 866, "ort": 867, "Ġwind": 868, "ĠAnna": 869, "Ġdan": 870, "Ġlove": 871, "Ġby": 872, "Ġeven": 873, "Ġdon": 874, "Ġcake": 875, "ĊĊ": 876, "Ġfore": 877, "udden": 878, "Ġfo": 879, "ĠThen": 880, "Ġpeople": 881, "Ġmag": 882, "Ġhard": 883, "ady": 884, "Ġend": 885, "uddenly": 886, "Ġbook": 887, "Ġbad": 888, "Ġhigh": 889, "Ġfam": 890, "Ġopened": 891, "Ġsafe": 892, "Ġloud": 893, "Ġhurt": 894, "Ġturn": 895, "Ġdoor": 896, "Ġover": 897, "Ġafter": 898, "Ġche": 899, "ak": 900, "Let": 901, "uff": 902, "Ġcol": 903, "pected": 904, "Ġpicked": 905, "Ġsurprised": 906, "Ġway": 907, "Ġpa": 908, "ĠEvery": 909, "Ġground": 910, "'m": 911, "ip": 912, "Ġproud": 913, "Ġcu": 914, "Ġim": 915, "expected": 916, "Ġunexpected": 917, "Ġthanked": 918, "Ġgl": 919, "Ġcome": 920, "ber": 921, "arden": 922, "Ġgarden": 923, "age": 924, "Ġfar": 925, "Ġstill": 926, "Ġshould": 927, "ild": 928, "Ġever": 929, "Ġblue": 930, "Ġgive": 931, "Ġsn": 932, "ĠHer": 933, "ummy": 934, "imb": 935, "ĠWhen": 936, "Ġoff": 937, "As": 938, "Ġclimb": 939, "No": 940, "ĠFrom": 941, "ĠP": 942, "Ġcolor": 943, "Ġhugged": 944, "Ġqu": 945, "Ġstrong": 946, "kay": 947, "ough": 948, "Ġfamily": 949, "ĠK": 950, "Ġmagic": 951, "Ġjumped": 952, "hes": 953, "Ġkid": 954, "Ġsmile": 955, "em": 956, "Ġcall": 957, "iz": 958, "Ġplace": 959, "ĠIn": 960, "Ġforest": 961, "ool": 962, "Ġnow": 963, "Ġbro": 964, "pt": 965, "Ġbra": 966, "Ġma": 967, "Ġsto": 968, "Ġgreat": 969, "Ġdra": 970, "Ġstay": 971, "xt": 972, "Ġunt": 973, "ĠSara": 974, "Ġwalk": 975, "ct": 976, "Ġbea": 977, "Ġstory": 978, "itty": 979, "Ġuntil": 980, "Ġbeaut": 981, "Ġhappily": 982, "uffy": 983, "Ġnext": 984, "oon": 985, "ress": 986, "Ġmouse": 987, "ture": 988, "Ġstick": 989, "be": 990, "ning": 991, "lease": 992, "dy": 993, "Ġkids": 994, "and": 995, "Ġbeing": 996, "Ġhelped": 997, "iful": 998, "unny": 999, "Ġbeautiful": 1000, "oy": 1001, "ies": 1002, "Ġimp": 1003, "Ġsqu": 1004, "Ġclos": 1005, "ree": 1006, "Ġshowed": 1007, "Ġpart": 1008, "Ġboat": 1009, "ane": 1010, "Ġlisten": 1011, "Ġtown": 1012, "Ġpicture": 1013, "He": 1014, "Ġmor": 1015, "Ġtra": 1016, "ars": 1017, "rel": 1018, "Ġfrog": 1019, "Ġangry": 1020, "Ġeveryone": 1021, "Ġwhile": 1022, "cks": 1023, "Ġrem": 1024, "Ġapp": 1025, "Ġstopped": 1026, "ĠWh": 1027, "It": 1028, "ger": 1029, "Ġhole": 1030, "ĠLet": 1031, "ĠR": 1032, "Ġhat": 1033, "Ġwarm": 1034, "Ġrain": 1035, "Can": 1036, "Now": 1037, "Ġyummy": 1038, "Ġate": 1039, "Ġbrave": 1040, "Ġsoft": 1041, "bbit": 1042, "luffy": 1043, "Ġwatch": 1044, "ary": 1045, "iss": 1046, "Ġcalled": 1047, "Ġbed": 1048, "Ġwo": 1049, "Ġopen": 1050, "Ġad": 1051, "ĠSally": 1052, "Ġmet": 1053, "Ġfell": 1054, "Ġde": 1055, "ĠKitty": 1056, "Ġnoise": 1057, "Ġwhere": 1058, "Ġlost": 1059, "Ġgame": 1060, "th": 1061, "so": 1062, "Ġrabbit": 1063, "fore": 1064, "Ġcry": 1065, "ished": 1066, "When": 1067, "Ġkeep": 1068, "Ġalso": 1069, "gan": 1070, "vent": 1071, "What": 1072, "Ġface": 1073, "Ġbus": 1074, "Ġkept": 1075, "Ġcouldn": 1076, "Ġpain": 1077, "Ġsoon": 1078, "owl": 1079, "dded": 1080, "Ġbre": 1081, "Ġdoll": 1082, "ĠFluffy": 1083, "Ġtwo": 1084, "irst": 1085, "Ġleave": 1086, "ught": 1087, "self": 1088, "ma": 1089, "Ġcook": 1090, "Ġbefore": 1091, "ired": 1092, "Ġflowers": 1093, "Ġwr": 1094, "uch": 1095, "Then": 1096, "Ġuse": 1097, "Ġgreen": 1098, "Ġhands": 1099, "That": 1100, "Ġfunny": 1101, "Ġpus": 1102, "aybe": 1103, "Hi": 1104, "Ġnodded": 1105, "air": 1106, "Ġsat": 1107, "Ġstore": 1108, "illy": 1109, "irrel": 1110, "Ġtruck": 1111, "itc": 1112, "Ġcra": 1113, "Look": 1114, "Ġslide": 1115, "les": 1116, "Ġwait": 1117, "Ġgoing": 1118, "Ġrace": 1119, "Ġhaving": 1120, "Ġsquirrel": 1121, "Ġlooking": 1122, "Ġcatch": 1123, "Ġsing": 1124, "Ben": 1125, "Ġhas": 1126, "itchen": 1127, "Ġkitchen": 1128, "Ġbirds": 1129, "Ġyell": 1130, "leep": 1131, "Ġused": 1132, "Ġey": 1133, "Ġbeh": 1134, "âĢĿ": 1135, "Ġblo": 1136, "Ġour": 1137, "âĢľ": 1138, "ange": 1139, "able": 1140, "Ġthr": 1141, "Ġtired": 1142, "uit": 1143, "Ġri": 1144, "thing": 1145, "Ġmommy": 1146, "Ġmean": 1147, "Ġfin": 1148, "Ġtalk": 1149, "ĠCan": 1150, "Ġz": 1151, "Ġfix": 1152, "Ġask": 1153, "Ġpond": 1154, "orn": 1155, "We": 1156, "Ġexpl": 1157, "ĠJo": 1158, "Ġduck": 1159, "Ġbunny": 1160, "ello": 1161, "Hello": 1162, "ember": 1163, "Ġparty": 1164, "Ġothers": 1165, "Ġdr": 1166, "ath": 1167, "ĠNow": 1168, "Ġsound": 1169, "Ġwork": 1170, "Ġtri": 1171, "Ġthink": 1172, "Ġpull": 1173, "day": 1174, "Ġhop": 1175, "az": 1176, "led": 1177, "joy": 1178, "Ġswe": 1179, "ng": 1180, "Ġmoral": 1181, "Ġsunny": 1182, "Ġcold": 1183, "Ġfirst": 1184, "Ġflo": 1185, "Ġfav": 1186, "llow": 1187, "Ġimport": 1188, "Ġdif": 1189, "rew": 1190, "Ġdress": 1191, "int": 1192, "Ġjo": 1193, "Ġdraw": 1194, "ount": 1195, "Ġmess": 1196, "Ġsand": 1197, "Ġreal": 1198, "Ġenjoy": 1199, "Ġeyes": 1200, "Ġright": 1201, "Ġice": 1202, "Ġpaint": 1203, "Ġremember": 1204, "Ġhead": 1205, "ĠDo": 1206, "Ġokay": 1207, "ĠG": 1208, "Ġimportant": 1209, "Ġbright": 1210, "imes": 1211, "Ġmaking": 1212, "Ġvo": 1213, "Ġcuri": 1214, "co": 1215, "ĠFin": 1216, "Ġpie": 1217, "Ġhun": 1218, "Ġdir": 1219, "hn": 1220, "Ġcon": 1221, "Ġcla": 1222, "Ġfollow": 1223, "Ġcut": 1224, "Ġown": 1225, "Ġflower": 1226, "ken": 1227, "Ġtall": 1228, "Ġfavor": 1229, "Ġhid": 1230, "Ġcurious": 1231, "Ġtable": 1232, "At": 1233, "Ġfavorite": 1234, "Ġbehind": 1235, "Ġshared": 1236, "Ġhere": 1237, "Wow": 1238, "ĠâĢľ": 1239, "ious": 1240, "Ġtell": 1241, "Ġrest": 1242, "Don": 1243, "Ġworked": 1244, "Ġbegan": 1245, "Ġsleep": 1246, "Ġnight": 1247, "Ġbag": 1248, "Ġlion": 1249, "Ġagre": 1250, "ded": 1251, "Ġmove": 1252, "Ġhot": 1253, "Ġadvent": 1254, "aring": 1255, "Ġstop": 1256, "Ġforg": 1257, "Ġsweet": 1258, "ike": 1259, "Ġsurprise": 1260, "Ġwatched": 1261, "After": 1262, "Ġfarm": 1263, "ĠThis": 1264, "que": 1265, "Ġru": 1266, "Ġpick": 1267, "Ġsho": 1268, "Ġlady": 1269, "Ġpap": 1270, "Ġworry": 1271, "Ġmon": 1272, "zy": 1273, "ster": 1274, "Ġwalking": 1275, "Ġyard": 1276, "Ġthing": 1277, "Ġhungry": 1278, "Ġdark": 1279, "Ġvoice": 1280, "Ġagreed": 1281, "Max": 1282, "Ġtouch": 1283, "ied": 1284, "Ġper": 1285, "Ġfloor": 1286, "Ġdis": 1287, "Ġhair": 1288, "Ġlaugh": 1289, "Ġtail": 1290, "Why": 1291, "Anna": 1292, "Ġcolors": 1293, "fere": 1294, "Ġtrees": 1295, "Ġdiffere": 1296, "Ġgrass": 1297, "Ġcried": 1298, "Ġshout": 1299, "ede": 1300, "Ġtop": 1301, "Ġcloser": 1302, "ott": 1303, "Ġbel": 1304, "Ġtast": 1305, "Ġfull": 1306, "ac": 1307, "Ġlight": 1308, "Ġdoes": 1309, "ĠMr": 1310, "Ġplease": 1311, "ign": 1312, "ĠSuddenly": 1313, "Ġdifferent": 1314, "ppy": 1315, "ered": 1316, "Ġread": 1317, "Ġcars": 1318, "Ġcr": 1319, "bo": 1320, "Ġblocks": 1321, "Ġsong": 1322, "Ġwall": 1323, "Sam": 1324, "Ġbutter": 1325, "Ġwood": 1326, "Ġswim": 1327, "Ġfire": 1328, "lly": 1329, "ĠAs": 1330, "ila": 1331, "Ġhill": 1332, "Ġturned": 1333, "Ġready": 1334, "Ġneeded": 1335, "Ġfruit": 1336, "Ġleaves": 1337, "Ġbroken": 1338, "Ġpaper": 1339, "oney": 1340, "Ġprom": 1341, "Sue": 1342, "ĠJack": 1343, "âĢĻ": 1344, "Ġdance": 1345, "bye": 1346, "Ġyellow": 1347, "Ġpiece": 1348, "Ġfight": 1349, "Suddenly": 1350, "Ġdel": 1351, "ndma": 1352, "Ġfriendly": 1353, "Ġwet": 1354, "Ġfeeling": 1355, "Ġadventure": 1356, "where": 1357, "isy": 1358, "cked": 1359, "ient": 1360, "ins": 1361, "Ġrunning": 1362, "Ġhold": 1363, "Ġanother": 1364, "ĠThat": 1365, "Ġlistened": 1366, "Ġmus": 1367, "Ġmight": 1368, "ĠBobo": 1369, "Ġonly": 1370, "ced": 1371, "ater": 1372, "Ġamaz": 1373, "Ġswing": 1374, "Ġdri": 1375, "Ġclose": 1376, "icy": 1377, "Ġquick": 1378, "Ġless": 1379, "Mia": 1380, "Ġbaby": 1381, "Ġplan": 1382, "av": 1383, "She": 1384, "So": 1385, "Ġsit": 1386, "Ġperf": 1387, "Ġclimbed": 1388, "Ġcream": 1389, "Ġsees": 1390, "Ġgoodbye": 1391, "Ġfair": 1392, "ached": 1393, "Ġmust": 1394, "Ġcount": 1395, "Ġwag": 1396, "Ġroll": 1397, "Ġballoon": 1398, "Ġglad": 1399, "ĠAll": 1400, "Ġwonder": 1401, "Ġsnow": 1402, "Ġwin": 1403, "ĠDad": 1404, "Ġnest": 1405, "Ġchair": 1406, "iced": 1407, "Ġgone": 1408, "Ġbuild": 1409, "Ġsmell": 1410, "Ġslow": 1411, "red": 1412, "ear": 1413, "Ġmoment": 1414, "Ġpretend": 1415, "af": 1416, "Sara": 1417, "key": 1418, "Ġhelping": 1419, "ather": 1420, "Ġrepl": 1421, "Ġname": 1422, "ĠJane": 1423, "Ġplant": 1424, "Ġwished": 1425, "Ġdoing": 1426, "bbed": 1427, "Ġwindow": 1428, "Ġbit": 1429, "Ġunderst": 1430, "Ġtrying": 1431, "Ġbuy": 1432, "Ġhide": 1433, "Ġcool": 1434, "Ġac": 1435, "Ġstuck": 1436, "ĠMommy": 1437, "Ġcloud": 1438, "Ġleft": 1439, "Ġheld": 1440, "Ġfall": 1441, "outh": 1442, "Ġste": 1443, "Ġbeen": 1444, "ds": 1445, "ash": 1446, "Ġar": 1447, "ĠEveryone": 1448, "Ġdone": 1449, "Ġlooks": 1450, "Ġcoming": 1451, "ames": 1452, "Ġthree": 1453, "Ġdirty": 1454, "Ġbutterf": 1455, "Ġpushed": 1456, "ging": 1457, "cle": 1458, "Ġquickly": 1459, "Ġtiny": 1460, "Ġreached": 1461, "ized": 1462, "ting": 1463, "Ġapple": 1464, "ĠTimmy": 1465, "Ġthank": 1466, "Ġmouth": 1467, "Ġowl": 1468, "Ġbar": 1469, "Ġclapped": 1470, "Okay": 1471, "Ġthrough": 1472, "Ġbooks": 1473, "oom": 1474, "ation": 1475, "aught": 1476, "Oh": 1477, "Ġpu": 1478, "Ġtower": 1479, "Ġwhy": 1480, "Ġdream": 1481, "Ġsometimes": 1482, "Ġjob": 1483, "Ġant": 1484, "avy": 1485, "In": 1486, "Ġpink": 1487, "Ġfill": 1488, "Ġlesson": 1489, "Ġair": 1490, "Ġswam": 1491, "Ġmar": 1492, "Ġgrow": 1493, "ĠThere": 1494, "This": 1495, "Ġexplore": 1496, "Ġbrother": 1497, "ix": 1498, "ower": 1499, "Ġsure": 1500, "Ġspl": 1501, "Ġlikes": 1502, "Ġbott": 1503, "Ġhear": 1504, "Ġshouted": 1505, "Ġdro": 1506, "Ġreplied": 1507, "ield": 1508, "Ġpulled": 1509, "Ġremembered": 1510, "Ġanything": 1511, "ĠO": 1512, "Ġbigger": 1513, "Ġland": 1514, "Ġkey": 1515, "Ġdin": 1516, "Ġwoods": 1517, "Ġwaved": 1518, "Ġcup": 1519, "Ġbran": 1520, "'re": 1521, "Ġchild": 1522, "oup": 1523, "Ġscary": 1524, "Ġwise": 1525, "ucky": 1526, "Ġbroke": 1527, "Ġturns": 1528, "ely": 1529, "Ġmusic": 1530, "pe": 1531, "Ġpat": 1532, "ape": 1533, "Ġtrain": 1534, "Ġbutterfly": 1535, "Ġreach": 1536, "Ġnoticed": 1537, "Ġcre": 1538, "Ġalone": 1539, "aisy": 1540, "Ġenjoyed": 1541, "Ġbike": 1542, "ph": 1543, "Ġjoin": 1544, "Ġarm": 1545, "Lucy": 1546, "Ġseen": 1547, "Ġsna": 1548, "orm": 1549, "Ġtreat": 1550, "Ġpictures": 1551, "Ġblew": 1552, "Ġgames": 1553, "Ġworld": 1554, "Ġwaited": 1555, "Ġset": 1556, "asure": 1557, "Ġmat": 1558, "Ġcont": 1559, "Jo": 1560, "Ġride": 1561, "Ġje": 1562, "room": 1563, "Ġcolorful": 1564, "Ġpen": 1565, "Ġmix": 1566, "der": 1567, "Ġve": 1568, "Ġeverywhere": 1569, "Ġbreak": 1570, "amp": 1571, "Ġstayed": 1572, "uddy": 1573, "Ġblack": 1574, "ries": 1575, "Ġforgot": 1576, "Ġcast": 1577, "Ġgent": 1578, "iet": 1579, "ee": 1580, "Spot": 1581, "Ġpot": 1582, "Ġheavy": 1583, "ĠAfter": 1584, "ince": 1585, "Ġmiss": 1586, "Ġju": 1587, "Ġfollowed": 1588, "Ġhimself": 1589, "ĠWhat": 1590, "Ġcand": 1591, "Ġmakes": 1592, "Ġwrong": 1593, "Ġwon": 1594, "Ġhopped": 1595, "Ġgrabbed": 1596, "Ġsea": 1597, "Ġclot": 1598, "itten": 1599, "Ġquiet": 1600, "ister": 1601, "Ġclothes": 1602, "Ġleg": 1603, "Ġstu": 1604, "Ġtight": 1605, "less": 1606, "Bob": 1607, "arent": 1608, "Ġnap": 1609, "Ġwants": 1610, "ner": 1611, "ton": 1612, "Ġunderstand": 1613, "Ġbee": 1614, "ze": 1615, "Ġpol": 1616, "\".": 1617, "ift": 1618, "ance": 1619, "Ġleaf": 1620, "man": 1621, "Ġcomp": 1622, "rot": 1623, "thy": 1624, "Her": 1625, "Do": 1626, "Ġwhite": 1627, "ĠJohn": 1628, "Ġgift": 1629, "Ġthrew": 1630, "Ġparent": 1631, "lc": 1632, "Ġfaster": 1633, "Ġdry": 1634, "Ġbeach": 1635, "ctor": 1636, "Ġbrought": 1637, "ĠBuddy": 1638, "ire": 1639, "Ġpoint": 1640, "Ġriver": 1641, "ued": 1642, "Ġbor": 1643, "ĠInside": 1644, "Ġhit": 1645, "ully": 1646, "oun": 1647, "ini": 1648, "Ġsister": 1649, "ves": 1650, "Ġsign": 1651, "ĠDaisy": 1652, "Ġrel": 1653, "Ġround": 1654, "His": 1655, "nin": 1656, "Ġdeep": 1657, "Ġwords": 1658, "ingin": 1659, "Ġside": 1660, "Ġhappen": 1661, "bble": 1662, "Ġking": 1663, "ĠJoe": 1664, "sh": 1665, "pper": 1666, "fully": 1667, "Ġem": 1668, "ĠLila": 1669, "Ġsmart": 1670, "ards": 1671, "Ġtalked": 1672, "Ġcastle": 1673, "Ġvis": 1674, "Ġperfect": 1675, "ang": 1676, "Ġgrandma": 1677, "Ġcookies": 1678, "Ġwish": 1679, "Ġreally": 1680, "Ġprince": 1681, "Ġwell": 1682, "Ġbowl": 1683, "gy": 1684, "Ġcrab": 1685, "Ġtoday": 1686, "Ġwear": 1687, "row": 1688, "Ġworried": 1689, "olly": 1690, "Ġsomeone": 1691, "Ġbutton": 1692, "Ġres": 1693, "Ġbite": 1694, "imi": 1695, "ĠMaybe": 1696, "Ġsharing": 1697, "Ġdinner": 1698, "ĠBilly": 1699, "From": 1700, "Ġfield": 1701, "Ġfur": 1702, "Ġbottle": 1703, "ĠTo": 1704, "Ġmum": 1705, "Mommy": 1706, "ĠSarah": 1707, "Ġdelic": 1708, "Ġcontin": 1709, "eddy": 1710, "Ġsang": 1711, "Ġjar": 1712, "John": 1713, "Ġdrag": 1714, "Ġflying": 1715, "Maybe": 1716, "Ġstar": 1717, "fort": 1718, "Ġspr": 1719, "Ġsec": 1720, "itting": 1721, "Ġfinished": 1722, "Ġfree": 1723, "Ġasks": 1724, "While": 1725, "Ġbranch": 1726, "Just": 1727, "Ġvisit": 1728, "ence": 1729, "Ġsmiles": 1730, "Ġsu": 1731, "Ġdanced": 1732, "ĠSoon": 1733, "ross": 1734, "Ġlake": 1735, "Ġfairy": 1736, "Ġmonster": 1737, "Ġfilled": 1738, "Ġmud": 1739, "Ġele": 1740, "Ġcarefully": 1741, "Ġblank": 1742, "Ġeating": 1743, "Ġque": 1744, "Ġrealized": 1745, "Ġpromised": 1746, "Ġgu": 1747, "Ġgi": 1748, "ord": 1749, "Ġparents": 1750, "Ġshin": 1751, "Ġpig": 1752, "Ġsecret": 1753, "Ġcontinued": 1754, "Ġwithout": 1755, "Ġsail": 1756, "Ġpast": 1757, "Ġamazing": 1758, "Ġdragon": 1759, "Ġblanket": 1760, "ast": 1761, "Ġthrow": 1762, "Ġletter": 1763, "Ġchee": 1764, "Ġenough": 1765, "iver": 1766, "ead": 1767, "Ġyes": 1768, "Ġel": 1769, "cket": 1770, "Ġwagged": 1771, "Ġtreasure": 1772, "Ġstone": 1773, "Ġorange": 1774, "Ġfox": 1775, "Ġdanger": 1776, "Ġmoved": 1777, "Ġliving": 1778, "Ġeverything": 1779, "Ġcreat": 1780, "igh": 1781, "Ġbrown": 1782, "Ġspot": 1783, "Ġcho": 1784, "Ġrocks": 1785, "stead": 1786, "ich": 1787, "Ġboun": 1788, "Ġmoney": 1789, "Ġelse": 1790, "ears": 1791, "Ġpurp": 1792, "Ġhigher": 1793, "Fin": 1794, "gg": 1795, "ĠAt": 1796, "ayon": 1797, "Ġcrayon": 1798, "ren": 1799, "Ġtalking": 1800, "Ġbas": 1801, "Ġcaught": 1802, "Ġbarked": 1803, "Ġpurple": 1804, "Ġcow": 1805, "os": 1806, "Ġshoes": 1807, "ket": 1808, "Ġegg": 1809, "Ġbasket": 1810, "ĠMimi": 1811, "Ġce": 1812, "zz": 1813, "cy": 1814, "Ġruns": 1815, "ĠEm": 1816, "ible": 1817, "Ġwelc": 1818, "Ġsoup": 1819, "Ġlon": 1820, "Ġdrink": 1821, "Ġclosed": 1822, "Ġchildren": 1823, "Ġscream": 1824, "Ġpre": 1825, "col": 1826, "Ġwhist": 1827, "Ġsnake": 1828, "Ġpaw": 1829, "Ġlonely": 1830, "Ġsitting": 1831, "Ġ-": 1832, "Ġfarmer": 1833, "emy": 1834, "aughty": 1835, "Ġstand": 1836, "Ġnaughty": 1837, "unch": 1838, "Ġstre": 1839, "Ġmother": 1840, "Ġmonkey": 1841, "sy": 1842, "Ġatt": 1843, "Ġteac": 1844, "Ġsilly": 1845, "Ġdoctor": 1846, "Ġcarrot": 1847, "Ġtouc": 1848, "est": 1849, "Ġcrying": 1850, "ĠZ": 1851, "Ġsam": 1852, "Ġsame": 1853, "ella": 1854, "Ġpet": 1855, "isk": 1856, "Amy": 1857, ".âĢĿ": 1858, "Ġbread": 1859, "Ġsmo": 1860, "Ġbath": 1861, "pping": 1862, "Ġspin": 1863, "Ġgetting": 1864, "ush": 1865, "Ġlaughing": 1866, "irt": 1867, "chool": 1868, "althy": 1869, "Ġpieces": 1870, "ises": 1871, "Ġswings": 1872, "Ġbuck": 1873, "ated": 1874, "Ġthinks": 1875, "Ġmail": 1876, "Ġcoll": 1877, "Ġcave": 1878, "Ġwings": 1879, "erry": 1880, "ey": 1881, "Ġshining": 1882, "ĠGra": 1883, "Ġschool": 1884, "Ġyears": 1885, "used": 1886, "Ġhoped": 1887, "Ġtwins": 1888, "vel": 1889, "iskers": 1890, "board": 1891, "Ġpudd": 1892, "Ġstrange": 1893, "Ġshell": 1894, "Ġroad": 1895, "Ġcute": 1896, "Ġtouched": 1897, "Ġph": 1898, "Ġheart": 1899, "Ġdangerous": 1900, "Ġarri": 1901, "ball": 1902, "Ġtasty": 1903, "ama": 1904, "ale": 1905, "!âĢĿ": 1906, "Ġbelie": 1907, "idge": 1908, "Ġwelcome": 1909, "Ġtrou": 1910, "Ġtom": 1911, "Ġcheese": 1912, "eo": 1913, "Ġdays": 1914, "cing": 1915, "Ġshop": 1916, "Ġowner": 1917, "Ġteacher": 1918, "Please": 1919, "Ġseat": 1920, "Ġpill": 1921, "Ġmorning": 1922, "ĠTommy": 1923, "ming": 1924, "fish": 1925, "ches": 1926, "Ġsinging": 1927, "Ġnut": 1928, "Ġmad": 1929, "Ġpers": 1930, "Ġhoney": 1931, "Ġcoat": 1932, "Ġshap": 1933, "Ġpass": 1934, "ased": 1935, "Ġvill": 1936, "Ġrolled": 1937, "ĠCh": 1938, "Ġbring": 1939, "lue": 1940, "Ġrob": 1941, "Ġprob": 1942, "lem": 1943, "itch": 1944, "Ġnose": 1945, "Ġherself": 1946, "Ġsear": 1947, "Ġproblem": 1948, "umpy": 1949, "Ġwhe": 1950, "Ġteddy": 1951, "ined": 1952, "Ġrobot": 1953, "Ġarrived": 1954, "ass": 1955, "Ġpush": 1956, "Ġdropped": 1957, "ipped": 1958, "Ġteach": 1959, "Ġstreet": 1960, "set": 1961, "ract": 1962, "Ġsack": 1963, "ĠWhiskers": 1964, "Ġpower": 1965, "Ġkitten": 1966, "Ġcandy": 1967, "Ġseem": 1968, "Ġjuice": 1969, "unt": 1970, "Ġpocket": 1971, "Ġgrew": 1972, "Ġcorn": 1973, "Ġwra": 1974, "Ġkite": 1975, "Ġben": 1976, "Ġfinally": 1977, "Ġpath": 1978, "Ġfan": 1979, "ĠRemy": 1980, "Ġgentle": 1981, "llie": 1982, "Ġpuppy": 1983, "Ġwore": 1984, "Ġpromise": 1985, "Ġpile": 1986, "oose": 1987, "ol": 1988, "ail": 1989, "Ġshapes": 1990, "Ġbusy": 1991, "Ġwoke": 1992, "OK": 1993, "Ġfence": 1994, "Ġeas": 1995, "Ġcheered": 1996, "adow": 1997, "Ġcour": 1998, "bow": 1999, "Ġcourse": 2000, "phant": 2001, "'ll": 2002, "mon": 2003, "ana": 2004, "Ġsnack": 2005, "Ġshake": 2006, "Ġnote": 2007, "Ġinc": 2008, "Ġlunch": 2009, "Ġcookie": 2010, "Ġcir": 2011, "ucce": 2012, "gle": 2013, "Ġbugs": 2014, "ier": 2015, "Ġfit": 2016, "Ġbell": 2017, "ĠBella": 2018, "ove": 2019, "Ġshr": 2020, "Ġsucce": 2021, "Ġdelicious": 2022, "Ġbench": 2023, "Ġinv": 2024, "sc": 2025, "Ġelephant": 2026, "Ġbush": 2027, "ĠEmma": 2028, "Ġwar": 2029, "Ġvillage": 2030, "ost": 2031, "Ġstring": 2032, "irp": 2033, "Ġgray": 2034, "Ġcover": 2035, "Ġbucket": 2036, "ĠBlue": 2037, "fused": 2038, "Ġapples": 2039, "Ġrainbow": 2040, "Ġhiding": 2041, "Ġfew": 2042, "Ġbelong": 2043, "Ġpatient": 2044, "Ġneck": 2045, "ĠLeo": 2046, "Ġlemon": 2047, "Ġforever": 2048, "ĠFred": 2049, "Ġwonderful": 2050, "Ġseed": 2051, "Ġrud": 2052, "Ġholding": 2053, "Ġtaking": 2054, "Ġmark": 2055, "Ġjoy": 2056, "ĠThank": 2057, "una": 2058, "Ġshook": 2059, "Ġlate": 2060, "Ġwrite": 2061, "Ġrude": 2062, "Ġlucky": 2063, "ider": 2064, "Ġkiss": 2065, "ĠJim": 2066, "urtle": 2067, "Good": 2068, "Ġmeet": 2069, "ĊĠ": 2070, "Finally": 2071, "Ġfighting": 2072, "Ġbow": 2073, "thday": 2074, "irthday": 2075, "gly": 2076, "ens": 2077, "Ġpuddle": 2078, "Ġhelpful": 2079, "Ġfeels": 2080, "ourn": 2081, "ose": 2082, "Lila": 2083, "Ġjourn": 2084, "Ġbat": 2085, "Ġable": 2086, "Ġcloth": 2087, "Ġboss": 2088, "Ġprincess": 2089, "Ġspo": 2090, "Ġband": 2091, "Ġrec": 2092, "Ġdirt": 2093, "Ġbirthday": 2094, "nn": 2095, "Ġzoom": 2096, "Ġtowards": 2097, "Ġdriver": 2098, "Ġbelieve": 2099, "Ġwide": 2100, "Ġob": 2101, "Ġmagical": 2102, "isa": 2103, "Ġthin": 2104, "Ġrope": 2105, "Ġpop": 2106, "epend": 2107, "Ġlift": 2108, "Ġspicy": 2109, "Ġseek": 2110, "Ġlive": 2111, "Ġgrab": 2112, "sw": 2113, "Ġmost": 2114, "Ġmine": 2115, "Ġansw": 2116, "eared": 2117, "alm": 2118, "app": 2119, "Ġamazed": 2120, "iling": 2121, "Ġsounds": 2122, "Ġyoung": 2123, "Ġtrip": 2124, "Ġtakes": 2125, "Ġbone": 2126, "ub": 2127, "ize": 2128, "Ġorgan": 2129, "Ġbubble": 2130, "Ġupset": 2131, "ses": 2132, "Ġturtle": 2133, "Ġsplas": 2134, "Ġspider": 2135, "Ġslowly": 2136, "Ġsal": 2137, "Ġnet": 2138, "ato": 2139, "Sure": 2140, "Ġsandw": 2141, "Ġdes": 2142, "Ġcarry": 2143, "fortable": 2144, "Ġtreats": 2145, "Ġmap": 2146, "Ġsnowman": 2147, "Ġshy": 2148, "Ġact": 2149, "br": 2150, "arp": 2151, "ilk": 2152, "Of": 2153, "Ġplane": 2154, "Ġmist": 2155, "Ġcomes": 2156, "lder": 2157, "den": 2158, "Ġsug": 2159, "Ġdisapp": 2160, "Ġchange": 2161, "Ġnoises": 2162, "ator": 2163, "Ġring": 2164, "ĠJen": 2165, "Ġsharp": 2166, "Ġdolls": 2167, "Ġspoon": 2168, "Ġhugs": 2169, "Ġhidden": 2170, "read": 2171, "ert": 2172, "Hey": 2173, "Ġwhistle": 2174, "Ġinstead": 2175, "Ġdrive": 2176, "Ġstars": 2177, "we": 2178, "Ġspark": 2179, "Ġforget": 2180, "ĠJust": 2181, "Ġent": 2182, "Ġhope": 2183, "ors": 2184, "Ġmoon": 2185, "Ġmilk": 2186, "Ġcraw": 2187, "not": 2188, "Ġmessy": 2189, "ity": 2190, "Be": 2191, "Ġmach": 2192, "Ġzoo": 2193, "Ġser": 2194, "ling": 2195, "kin": 2196, "Ġlast": 2197, "Ġdrum": 2198, "let": 2199, "Ġstories": 2200, "Ġslid": 2201, "Ġsick": 2202, "Ġpeace": 2203, "Ġballs": 2204, "ĠFinally": 2205, "ountain": 2206, "ork": 2207, "oppy": 2208, "Ġstepped": 2209, "Ġbossy": 2210, "Ġwave": 2211, "Ġugly": 2212, "Ġsmooth": 2213, "Ġdig": 2214, "Ġshirt": 2215, "Ġlife": 2216, "Ġcoin": 2217, "Ġcannot": 2218, "ĠN": 2219, "andy": 2220, "Ġplants": 2221, "Ġgrumpy": 2222, "Ġdaddy": 2223, "Ġdi": 2224, "oop": 2225, "lower": 2226, "eter": 2227, "umb": 2228, "Ġstep": 2229, "Ġshelf": 2230, "Ġlay": 2231, "Ġdrove": 2232, "ĠBe": 2233, "Ġdist": 2234, "Ġlegs": 2235, "pty": 2236, "Ġhor": 2237, "Ġcou": 2238, "Ġbought": 2239, "otect": 2240, "Ġwasn": 2241, "Ġprotect": 2242, "Ġfixed": 2243, "Ġempty": 2244, "ian": 2245, "Ġmin": 2246, "Ġhuge": 2247, "ĠBu": 2248, "oggy": 2249, "Ġsmelly": 2250, "Ġpillow": 2251, "Ġmachine": 2252, "Ġkno": 2253, "Ġdrew": 2254, "Ġbark": 2255, "Ġsongs": 2256, "Ġlater": 2257, "Ġglow": 2258, "up": 2259, "Ġmyster": 2260, "Ġwild": 2261, "Ġmissed": 2262, "irpy": 2263, "Ġval": 2264, "Ġspe": 2265, "Ġscar": 2266, "Ġsel": 2267, "Ġchick": 2268, "ĠAnn": 2269, "Ġwash": 2270, "Ġfil": 2271, "ĠOn": 2272, "Ġchased": 2273, "to": 2274, "aughter": 2275, "Ġtaste": 2276, "Ġsplash": 2277, "Ġgrate": 2278, "Ġgiant": 2279, "Ġclouds": 2280, "Ġash": 2281, "Ġfruits": 2282, "ĠLisa": 2283, "ĠJill": 2284, "Ġline": 2285, "Ġfle": 2286, "Ġducks": 2287, "Ġsour": 2288, "irr": 2289, "Later": 2290, "Ġwheel": 2291, "Ġwatching": 2292, "Ġselfish": 2293, "Ġarms": 2294, "Ġoven": 2295, "Ġdeer": 2296, "Ġwaiting": 2297, "Ġvan": 2298, "Ġqueen": 2299, "wel": 2300, "Ġjoke": 2301, "Ġgrateful": 2302, "Ġdogs": 2303, "Ġchocol": 2304, "ult": 2305, "Soon": 2306, "Ġseemed": 2307, "Ġgun": 2308, "Ġfeather": 2309, "And": 2310, "Ġsuddenly": 2311, "Ġdaughter": 2312, "ont": 2313, "ere": 2314, "cer": 2315, "amed": 2316, "Ġspray": 2317, "Ġship": 2318, "Ġplaces": 2319, "Ġfoot": 2320, "Ġconfused": 2321, "Ġwondered": 2322, "Ġtrouble": 2323, "Ġexp": 2324, "ular": 2325, "bor": 2326, "St": 2327, "Ġweak": 2328, "Ġsticks": 2329, "Ġjumping": 2330, "Ġfront": 2331, "Ġcheer": 2332, "ĠMark": 2333, "ĠCome": 2334, "Ġsave": 2335, "Ġmaybe": 2336, "Ġfinish": 2337, "Ġcrayons": 2338, "Ġbri": 2339, "lla": 2340, "Ġrich": 2341, "Ġjewel": 2342, "Ġchocolate": 2343, "oof": 2344, "box": 2345, "Ġsupp": 2346, "uce": 2347, "Ġwolf": 2348, "ĠTheir": 2349, "Ġscarf": 2350, "Ġpuzz": 2351, "Ġchew": 2352, "ĠChirpy": 2353, "umber": 2354, "arge": 2355, "Ġswan": 2356, "Ġrod": 2357, "Ġprint": 2358, "Ġpowerful": 2359, "Ġpar": 2360, "Ġknee": 2361, "Ġimag": 2362, "Ġfaces": 2363, "ĠPe": 2364, "mer": 2365, "Ġphone": 2366, "Ġneigh": 2367, "Ġmighty": 2368, "Ġkick": 2369, "Ġeasy": 2370, "ĠBunny": 2371, "ope": 2372, "Jack": 2373, "Ġstorm": 2374, "Ġputs": 2375, "Ġpract": 2376, "Ġlanded": 2377, "Ġcart": 2378, "Ġbeak": 2379, "izzy": 2380, "Ġsaved": 2381, "Ġpour": 2382, "Ġjog": 2383, "Ġacross": 2384, "ĠTogether": 2385, "ĠGrandma": 2386, "Ġwip": 2387, "Ġlad": 2388, "ions": 2389, "Ġhar": 2390, "Ġfurry": 2391, "erest": 2392, "Ġjun": 2393, "Ġadventures": 2394, "ĠMomo": 2395, "Ġswimming": 2396, "Ġonto": 2397, "Ġfing": 2398, "Ġinterest": 2399, "Ġfat": 2400, "Ġcalm": 2401, "Ġicy": 2402, "To": 2403, "Ġyear": 2404, "Ġpool": 2405, "Ġmot": 2406, "Ġgives": 2407, "ward": 2408, "ually": 2409, "Ġperson": 2410, "ĠWhy": 2411, "onest": 2412, "dge": 2413, "Ġladder": 2414, "Ġhero": 2415, "ĠWith": 2416, "ĠSp": 2417, "sp": 2418, "Ġcard": 2419, "era": 2420, "ever": 2421, "Sally": 2422, "Ġstood": 2423, "Ġhonest": 2424, "Ġdancing": 2425, "Ġanyone": 2426, "Ġwearing": 2427, "Ġsheep": 2428, "Ġthough": 2429, "Ġsol": 2430, "Ġscreamed": 2431, "Ġgate": 2432, "aur": 2433, "Ġmind": 2434, "Ġlovely": 2435, "Ġexplain": 2436, "iting": 2437, "Ġtries": 2438, "Ġtrue": 2439, "Ġlarge": 2440, "Ġbounce": 2441, "Ġign": 2442, "gest": 2443, "Ġtid": 2444, "Ġsnee": 2445, "Ġlock": 2446, "Ġgently": 2447, "Ġalong": 2448, "ĠLuna": 2449, "ones": 2450, "ek": 2451, "Ġrespect": 2452, "Ġfeet": 2453, "Ġbal": 2454, "?âĢĿ": 2455, "Ġsuccess": 2456, "Ġpointed": 2457, "Ġpin": 2458, "Ġcollect": 2459, "ĠJerry": 2460, "Ġyog": 2461, "Ġsoap": 2462, "Ġban": 2463, "issors": 2464, "ipp": 2465, "Ġfake": 2466, "ask": 2467, "Come": 2468, "Ġsuch": 2469, "Ġnothing": 2470, "Ġmistake": 2471, "Ġhorse": 2472, "Ġclever": 2473, "Ġaf": 2474, "yard": 2475, "vous": 2476, "ment": 2477, "lderly": 2478, "Ġscissors": 2479, "Ġloves": 2480, "Ġhealthy": 2481, "Ġelderly": 2482, "Ġbackyard": 2483, "Ġwing": 2484, "Ġshadow": 2485, "Ġimpress": 2486, "Ġgoes": 2487, "Ġbuilding": 2488, "elly": 2489, "Ġwhole": 2490, "Ġtrust": 2491, "Ġforgive": 2492, "Ġcage": 2493, "orrow": 2494, "Ġear": 2495, "Ġbean": 2496, "llo": 2497, "ervous": 2498, "Ġmatch": 2499, "Ġlead": 2500, "Ġplate": 2501, "Ġnervous": 2502, "Ġchase": 2503, "Ġappeared": 2504, "Ġlonger": 2505, "Ġcleaned": 2506, "iger": 2507, "Ġtidy": 2508, "Ġsplashed": 2509, "Ġsearch": 2510, "Ġinteresting": 2511, "Ġgold": 2512, "raid": 2513, "My": 2514, "Ġsleepy": 2515, "Ġpres": 2516, "Ġpoor": 2517, "Ġclass": 2518, "Ġashamed": 2519, "Ġafraid": 2520, "ĠIf": 2521, "ugh": 2522, "ometimes": 2523, "cil": 2524, "Ġsandwich": 2525, "Ġpan": 2526, "Ġeag": 2527, "Ġcreative": 2528, "Ġcross": 2529, "eth": 2530, "Ġtowel": 2531, "Ġpencil": 2532, "Ġcircle": 2533, "nic": 2534, "irror": 2535, "Ġpicnic": 2536, "Ġmirror": 2537, "Ġclap": 2538, "Ġboring": 2539, "ĠTiny": 2540, "Ġwand": 2541, "Ġtough": 2542, "Ġret": 2543, "Ġnearby": 2544, "Ġtest": 2545, "Ġrough": 2546, "Ġmysterious": 2547, "Ġdecor": 2548, "elp": 2549, "Kitty": 2550, "Ġexplor": 2551, "ĠSt": 2552, "ser": 2553, "Ġtea": 2554, "Ġsur": 2555, "Ġgather": 2556, "Ġdish": 2557, "Ġballoons": 2558, "Ġbald": 2559, "oph": 2560, "lo": 2561, "gled": 2562, "Ġtape": 2563, "Ġsmiling": 2564, "Ġreturn": 2565, "Ġmod": 2566, "Ġmed": 2567, "Ġhang": 2568, "Ġdrawing": 2569, "owed": 2570, "Ġwrap": 2571, "Ġwom": 2572, "Ġcouch": 2573, "rag": 2574, "nan": 2575, "Ġwoman": 2576, "Ġwagon": 2577, "Ġtomorrow": 2578, "Ġtie": 2579, "Ġhum": 2580, "ote": 2581, "oomy": 2582, "imp": 2583, "Ġsugar": 2584, "Ġpretended": 2585, "Ġmov": 2586, "Ġlaw": 2587, "Ġhose": 2588, "icked": 2589, "Ġworking": 2590, "Ġpack": 2591, "ĠMy": 2592, "ute": 2593, "asp": 2594, "Ġrad": 2595, "Ġpolite": 2596, "Ġjelly": 2597, "ieved": 2598, "Ġthese": 2599, "Ġtele": 2600, "Ġstamp": 2601, "Ġpresent": 2602, "umsy": 2603, "izz": 2604, "isp": 2605, "iff": 2606, "bby": 2607, "aw": 2608, "Ġwhale": 2609, "Ġstret": 2610, "Ġsmelled": 2611, "Ġclock": 2612, "Ġcone": 2613, "Tommy": 2614, "Ġsalad": 2615, "Ġgroup": 2616, "Ġeager": 2617, "Ġboard": 2618, "ĠMary": 2619, "Stop": 2620, "Help": 2621, "Ġfeed": 2622, "Ġfear": 2623, "Ġcozy": 2624, "Ġblow": 2625, "ĠBenny": 2626, "Ġmotor": 2627, "Ġmic": 2628, "Ġgen": 2629, "ensive": 2630, "Ġyelled": 2631, "Ġpuzzle": 2632, "Ġfridge": 2633, "Ġemb": 2634, "ĠMolly": 2635, "ned": 2636, "Ġtwist": 2637, "Ġglue": 2638, "Ġclown": 2639, "ĠDon": 2640, "arl": 2641, "Ġwhisp": 2642, "Ġpeaceful": 2643, "Ġnoisy": 2644, "Ġfold": 2645, "Ġexpensive": 2646, "ĠPlease": 2647, "ĠOllie": 2648, "ĠCat": 2649, "light": 2650, "erce": 2651, "Ġreg": 2652, "Ġmole": 2653, "Ġfierce": 2654, "Ġdrank": 2655, "Ġdead": 2656, "Ġcri": 2657, "yal": 2658, "Ġword": 2659, "Ġscr": 2660, "Ġquest": 2661, "Ġhello": 2662, "Ġguess": 2663, "Ġclumsy": 2664, "ĠJimmy": 2665, "ĠBobby": 2666, "Ġpri": 2667, "Ġkicked": 2668, "ĠMama": 2669, "urse": 2670, "rass": 2671, "ife": 2672, "arrass": 2673, "aking": 2674, "Ġembarrass": 2675, "Ġcorner": 2676, "Ġants": 2677, "Ġwake": 2678, "Ġshore": 2679, "Ġsco": 2680, "Ġpump": 2681, "Ġloyal": 2682, "Ġgar": 2683, "Ġflag": 2684, "Ġeggs": 2685, "Ġadm": 2686, "ventually": 2687, "ragile": 2688, "any": 2689, "Ġrose": 2690, "Ġmatter": 2691, "Ġlog": 2692, "Ġhur": 2693, "Ġdull": 2694, "ĠHow": 2695, "Ġwaves": 2696, "Ġtasted": 2697, "Ġrelieved": 2698, "Ġperform": 2699, "Ġfragile": 2700, "Ġbored": 2701, "reen": 2702, "Jim": 2703, "Ġteam": 2704, "Ġsaf": 2705, "Ġjug": 2706, "redible": 2707, "Ġmelt": 2708, "Ġfright": 2709, "Ġbubbles": 2710, "ĠGo": 2711, "ness": 2712, "Ġpainted": 2713, "Ġincredible": 2714, "Ġgarage": 2715, "Ġbalance": 2716, "Ġacorn": 2717, "ĠWill": 2718, "Ġwrote": 2719, "Ġstra": 2720, "ĠSome": 2721, "ony": 2722, "ina": 2723, "erries": 2724, "Ġgoose": 2725, "Ġcrown": 2726, "Ġbreath": 2727, "Ġberries": 2728, "Ġav": 2729, "ĠAndy": 2730, "xible": 2731, "Ġzip": 2732, "Ġtells": 2733, "Ġstir": 2734, "Ġsold": 2735, "Ġhorn": 2736, "Ġflash": 2737, "ĠDoggy": 2738, "Ġshark": 2739, "Ġflexible": 2740, "Ġbecome": 2741, "ĠSometimes": 2742, "Ġ3": 2743, "Ġstudy": 2744, "Ġsauce": 2745, "Ġmarch": 2746, "Ġglass": 2747, "Ġfrightened": 2748, "Ġbridge": 2749, "Ġbeet": 2750, "Ġaunt": 2751, "dle": 2752, "alk": 2753, "Ġworm": 2754, "Ġsquare": 2755, "Ġsque": 2756, "Ġmop": 2757, "Ġcloset": 2758, "Ġtax": 2759, "Ġrug": 2760, "Ġord": 2761, "Ġjeep": 2762, "Ġgum": 2763, "Ġdug": 2764, "ray": 2765, "orry": 2766, "Ġtomato": 2767, "Ġthankful": 2768, "Ġstones": 2769, "Ġraven": 2770, "Ġcovered": 2771, "Ġbarn": 2772, "ighed": 2773, "berry": 2774, "bborn": 2775, "Ġteeth": 2776, "Ġtaxi": 2777, "Ġstubborn": 2778, "Ġrare": 2779, "Ġgoat": 2780, "Ġgener": 2781, "ĠU": 2782, "ots": 2783, "Ġwis": 2784, "Ġshows": 2785, "Ġroar": 2786, "Ġjournal": 2787, "Ġhoop": 2788, "Ġfancy": 2789, "Ġdizzy": 2790, "Ġap": 2791, "ique": 2792, "Ġwealthy": 2793, "Ġunique": 2794, "Ġmoms": 2795, "Ġcreature": 2796, "Ġbeetle": 2797, "Ġind": 2798, "ume": 2799, "pa": 2800, "met": 2801, "Ġstuff": 2802, "Ġpand": 2803, "Ġhelmet": 2804, "Ġgig": 2805, "elon": 2806, "Ġstat": 2807, "Ġshape": 2808, "Ġjungle": 2809, "Ġgenerous": 2810, "pes": 2811, "fic": 2812, "Ġwhich": 2813, "Ġweird": 2814, "Ġneighbor": 2815, "Ġmarket": 2816, "Ġmis": 2817, "itter": 2818, "cient": 2819, "alous": 2820, "Ġunderstood": 2821, "Ġtick": 2822, "Ġmovie": 2823, "Ġmelon": 2824, "Ġfool": 2825, "Ġdisco": 2826, "Ġdiffic": 2827, "Ġcap": 2828, "ĠBr": 2829, "ustr": 2830, "com": 2831, "Dad": 2832, "Ġnods": 2833, "Ġlose": 2834, "Ġlazy": 2835, "Ġhears": 2836, "Ġfine": 2837, "Ġdifficult": 2838, "Ġcarried": 2839, "Ġbrush": 2840, "Ġbody": 2841, "Ġancient": 2842, "shine": 2843, "lace": 2844, "Ġwire": 2845, "Ġshine": 2846, "Ġscare": 2847, "Ġmixed": 2848, "Ġjealous": 2849, "Ġchan": 2850, "ĠTV": 2851, "lves": 2852, "Me": 2853, "Every": 2854, "Ġsword": 2855, "Ġspace": 2856, "Ġfoolish": 2857, "Ġchest": 2858, "Ġcere": 2859, "Ġrocket": 2860, "Ġrice": 2861, "Ġnecklace": 2862, "ĠDaddy": 2863, "ustrated": 2864, "scape": 2865, "Ġsort": 2866, "Ġsnacks": 2867, "Ġbranches": 2868, "ual": 2869, "live": 2870, "ipper": 2871, "Ġyours": 2872, "Ġsunshine": 2873, "Ġknocked": 2874, "Ġcereal": 2875, "ĠBird": 2876, "als": 2877, "Ġpumpkin": 2878, "Ġpoem": 2879, "Ġcam": 2880, "ĠElla": 2881, "getable": 2882, "Ġvalue": 2883, "Ġunlo": 2884, "Ġspent": 2885, "Ġnorm": 2886, "Ġimpressive": 2887, "Ġfamous": 2888, "und": 2889, "Ġvegetable": 2890, "Ġthick": 2891, "Ġspread": 2892, "Ġpaws": 2893, "Ġpay": 2894, "Ġnosy": 2895, "Ġcomfortable": 2896, "Ġchicken": 2897, "rework": 2898, "otter": 2899, "Where": 2900, "Ġunk": 2901, "Ġrat": 2902, "Ġnormal": 2903, "Ġlamp": 2904, "Ġfrustrated": 2905, "Ġcounted": 2906, "Ġotter": 2907, "ym": 2908, "inky": 2909, "bled": 2910, "Mama": 2911, "Ġtwig": 2912, "Ġrelax": 2913, "Ġmug": 2914, "Ġknowing": 2915, "Ġexam": 2916, "Ġembarrassed": 2917, "Ġcarrots": 2918, "Ġburn": 2919, "ĠTr": 2920, "ĠFr": 2921, "ormous": 2922, "corn": 2923, "Ġwouldn": 2924, "Ġstatue": 2925, "Ġstage": 2926, "Ġorganized": 2927, "Ġham": 2928, "Ġfirework": 2929, "Ġenormous": 2930, "Ġclay": 2931, "Ġanswer": 2932, "ulif": 2933, "nown": 2934, "ief": 2935, "iddle": 2936, "ependent": 2937, "coli": 2938, "ccoli": 2939, "Ġsell": 2940, "Ġpopcorn": 2941, "Ġpepper": 2942, "Ġindependent": 2943, "Ġdrop": 2944, "Ġasleep": 2945, "Ġang": 2946, "ĠBrown": 2947, "ndpa": 2948, "lebr": 2949, "Ġtool": 2950, "Ġsolve": 2951, "Ġsmaller": 2952, "Ġscreen": 2953, "Ġpolice": 2954, "Ġfountain": 2955, "Ġcelebr": 2956, "Ġcats": 2957, "Ġbake": 2958, "uliflower": 2959, "inary": 2960, "Ġunknown": 2961, "Ġmoving": 2962, "Ġignor": 2963, "Ġharm": 2964, "Ġflashlight": 2965, "Ġcrazy": 2966, "Ġasking": 2967, "ĠDucky": 2968, "ery": 2969, "cut": 2970, "Ġuseful": 2971, "Ġter": 2972, "Ġpant": 2973, "Ġmiddle": 2974, "Ġ'": 2975, "usual": 2976, "Sorry": 2977, "Ġsock": 2978, "Ġnuts": 2979, "Ġhelps": 2980, "Ġhalf": 2981, "Ġglove": 2982, "Ġdiscover": 2983, "Ġcollar": 2984, "Ġchanged": 2985, "Ġchoose": 2986, "Ġcries": 2987, "rob": 2988, "cles": 2989, "Here": 2990, "Ġunusual": 2991, "Ġterri": 2992, "Ġmagn": 2993, "Ġhurts": 2994, "Ġcher": 2995, "Ġwashed": 2996, "Ġtrick": 2997, "Ġnumber": 2998, "Ġink": 2999, "Ġclear": 3000, "Ġangel": 3001, "unk": 3002, "coa": 3003, "Ġtank": 3004, "Ġsuccessful": 3005, "Ġslipped": 3006, "Ġmailbox": 3007, "Ġexploring": 3008, "Ġdepend": 3009, "Ġbroccoli": 3010, "ĠMany": 3011, "Inside": 3012, "Ġpress": 3013, "Ġheal": 3014, "Ġending": 3015, "Ġbatter": 3016, "ĠAl": 3017, "xious": 3018, "land": 3019, "anut": 3020, "Ġtem": 3021, "Ġpanda": 3022, "Ġoffice": 3023, "Ġjoined": 3024, "Ġfinger": 3025, "Ġcompass": 3026, "ĠWhile": 3027, "uitar": 3028, "robe": 3029, "otted": 3030, "loo": 3031, "igloo": 3032, "How": 3033, "Ġwalls": 3034, "Ġuniver": 3035, "Ġtire": 3036, "Ġstove": 3037, "Ġstri": 3038, "Ġsearched": 3039, "Ġpizz": 3040, "Ġpir": 3041, "Ġjam": 3042, "Ġhairy": 3043, "Ġguitar": 3044, "Ġfork": 3045, "Ġcube": 3046, "Ġigloo": 3047, "osaur": 3048, "ilt": 3049, "bra": 3050, "atch": 3051, "Ġtaught": 3052, "Ġspeed": 3053, "Ġseeds": 3054, "Ġscale": 3055, "Ġpicks": 3056, "Ġpants": 3057, "Ġgem": 3058, "Ġflute": 3059, "bin": 3060, "anger": 3061, "Ġspoiled": 3062, "Ġmeasure": 3063, "Ġdinosaur": 3064, "lph": 3065, "illa": 3066, "Ġhunt": 3067, "Ġfrown": 3068, "Ġexciting": 3069, "Ġdependable": 3070, "ĠInstead": 3071, "edient": 3072, "Ġthief": 3073, "Ġtent": 3074, "Ġstanding": 3075, "Ġpizza": 3076, "Ġmagnet": 3077, "Ġjet": 3078, "Ġcheerful": 3079, "Ġcabin": 3080, "ĠMiss": 3081, "nam": 3082, "ident": 3083, "arth": 3084, "ages": 3085, "Ġyourself": 3086, "Ġwitch": 3087, "Ġrep": 3088, "Ġcamera": 3089, "Ġcauliflower": 3090, "Ġcro": 3091, "Ġanxious": 3092, "nament": 3093, "host": 3094, "aff": 3095, "Are": 3096, "Ġterrible": 3097, "Ġtur": 3098, "Ġshiver": 3099, "Ġornament": 3100, "Ġmeant": 3101, "Ġjourney": 3102, "Ġisland": 3103, "Ġghost": 3104, "Ġfour": 3105, "Ġdolph": 3106, "Ġbathroom": 3107, "oint": 3108, "Together": 3109, "If": 3110, "Ġtaken": 3111, "Ġraced": 3112, "Ġpainting": 3113, "Ġordinary": 3114, "Ġobedient": 3115, "Ġloop": 3116, "Ġhouses": 3117, "Ġfluffy": 3118, "Ġcompassion": 3119, "Ġcomb": 3120, "Ġcoal": 3121, "Ġbrace": 3122, "Ġbottom": 3123, "zed": 3124, "omes": 3125, "Ġturkey": 3126, "Ġthoughtful": 3127, "Ġplanet": 3128, "Ġcocoa": 3129, "Ġcheap": 3130, "Ġbloom": 3131, "zzy": 3132, "iable": 3133, "iant": 3134, "ef": 3135, "ckey": 3136, "Ġthirst": 3137, "Ġtimes": 3138, "Ġrh": 3139, "Ġorder": 3140, "Ġfinding": 3141, "Ġfilthy": 3142, "Ġdisappoint": 3143, "Ġcost": 3144, "Ġbracelet": 3145, "ĠPoppy": 3146, "ĠNo": 3147, "ict": 3148, "ext": 3149, "erable": 3150, "cou": 3151, "Ġsteal": 3152, "Ġspotted": 3153, "Ġremind": 3154, "Ġmiserable": 3155, "Ġhockey": 3156, "Ġhelpless": 3157, "Ġhaircut": 3158, "Ġgloomy": 3159, "Ġdest": 3160, "Ġbitter": 3161, "ory": 3162, "most": 3163, "iv": 3164, "erp": 3165, "cept": 3166, "ache": 3167, "Ġwhispered": 3168, "Ġtied": 3169, "Ġshoe": 3170, "Ġsil": 3171, "Ġreef": 3172, "Ġprize": 3173, "Ġlocked": 3174, "Ġgets": 3175, "oto": 3176, "iness": 3177, "coura": 3178, "Ġthirsty": 3179, "Ġshoot": 3180, "Ġexplained": 3181, "Ġcryst": 3182, "Ġcomet": 3183, "ĠRose": 3184, "ĠBear": 3185, "gu": 3186, "comfortable": 3187, "Ġuncomfortable": 3188, "Ġtricks": 3189, "Ġspun": 3190, "Ġspill": 3191, "Ġref": 3192, "Ġescape": 3193, "Ġcrawled": 3194, "Ġbelonged": 3195, "Ġbedroom": 3196, "Ġalmost": 3197, "opl": 3198, "lliant": 3199, "erpill": 3200, "eropl": 3201, "dile": 3202, "codile": 3203, "Ġstraw": 3204, "Ġspring": 3205, "Ġinvited": 3206, "Ġharmless": 3207, "Ġfile": 3208, "Ġeng": 3209, "Ġcrack": 3210, "Ġcaterpill": 3211, "Ġbees": 3212, "Ġaeropl": 3213, "ung": 3214, "ubby": 3215, "selves": 3216, "pid": 3217, "ney": 3218, "ilty": 3219, "io": 3220, "ground": 3221, "ebra": 3222, "airs": 3223, "Ġwrapped": 3224, "Ġtemp": 3225, "Ġstupid": 3226, "Ġsquee": 3227, "Ġpersist": 3228, "Ġpassed": 3229, "Ġpale": 3230, "Ġneeds": 3231, "Ġguilty": 3232, "Ġgrace": 3233, "Ġdelicate": 3234, "Ġchubby": 3235, "Ġbuilt": 3236, "Ġbrilliant": 3237, "Timmy": 3238, "There": 3239, "Bobo": 3240, "Ġvegetables": 3241, "Ġusing": 3242, "Ġreliable": 3243, "Ġpray": 3244, "Ġpasta": 3245, "Ġnod": 3246, "Ġkissed": 3247, "Ġjolly": 3248, "Ġcareless": 3249, "port": 3250, "Ġzebra": 3251, "Ġsleeping": 3252, "Ġshrimp": 3253, "Ġroof": 3254, "Ġpatch": 3255, "Ġdisappointed": 3256, "Ġcaterpillar": 3257, "Ġbasketball": 3258, "ĠSh": 3259, "ĠPandy": 3260, "Ġuncle": 3261, "Ġstranger": 3262, "Ġsailor": 3263, "Ġrub": 3264, "Ġrode": 3265, "Ġrecord": 3266, "Ġloll": 3267, "Ġfearful": 3268, "Ġcompassionate": 3269, "Ġbicy": 3270, "Ġadventur": 3271, "Ġyarn": 3272, "Ġtroubled": 3273, "Ġtray": 3274, "Ġtiger": 3275, "Ġlicked": 3276, "Ġgor": 3277, "Ġdove": 3278, "Ġcrystal": 3279, "Ġcrocodile": 3280, "Ġcoo": 3281, "Ġbiggest": 3282, "Ġbarrel": 3283, "Ġaeroplane": 3284, "Ġadventurous": 3285, "Ġacc": 3286, "ĠSpike": 3287, "ours": 3288, "gust": 3289, "Ġsunf": 3290, "Ġstronger": 3291, "Ġserious": 3292, "Ġpersistent": 3293, "Ġmotorcy": 3294, "Ġitch": 3295, "Ġdisgust": 3296, "Ġdeaf": 3297, "Ġclub": 3298, "Ġboys": 3299, "ĠEven": 3300, "ond": 3301, "Ġtoast": 3302, "Ġsuit": 3303, "Ġruined": 3304, "Ġprun": 3305, "Ġmarble": 3306, "Ġjack": 3307, "Ġgrown": 3308, "Ġgorilla": 3309, "Ġengine": 3310, "Ġcompet": 3311, "Ġalert": 3312, "ĠYour": 3313, "ipop": 3314, "ino": 3315, "Ġstation": 3316, "Ġsighed": 3317, "Ġpip": 3318, "Ġfig": 3319, "Ġcase": 3320, "Ġbushes": 3321, "Ġblock": 3322, "Ġbump": 3323, "ĠOK": 3324, "ĠBet": 3325, "igin": 3326, "cream": 3327, "Who": 3328, "Ġtravel": 3329, "Ġtrunk": 3330, "Ġtears": 3331, "Ġsoar": 3332, "Ġsailed": 3333, "Ġpeanut": 3334, "Ġpow": 3335, "Ġorigin": 3336, "Ġlollipop": 3337, "Ġhammer": 3338, "Ġgraceful": 3339, "Ġgrapes": 3340, "Ġchar": 3341, "ying": 3342, "atter": 3343, "ats": 3344, "appy": 3345, "Ġwaff": 3346, "Ġscoot": 3347, "Ġpracticed": 3348, "Ġoriginal": 3349, "Ġhats": 3350, "Ġencoura": 3351, "Ġdolphin": 3352, "Ġchalk": 3353, "Ġaccident": 3354, "ĠJenny": 3355, "urtain": 3356, "imney": 3357, "ates": 3358, "arrel": 3359, "Jimmy": 3360, "Ġskip": 3361, "Ġmotorcycle": 3362, "Ġlearning": 3363, "Ġjacket": 3364, "Ġhomes": 3365, "Ġfather": 3366, "Ġdisgusting": 3367, "Ġcomfort": 3368, "Ġcoins": 3369, "Ġcact": 3370, "Ġcurtain": 3371, "Ġboats": 3372, "ube": 3373, "Their": 3374, "Ġvide": 3375, "Ġtriang": 3376, "Ġtemple": 3377, "Ġskull": 3378, "Ġskin": 3379, "Ġsink": 3380, "Ġnail": 3381, "Ġlouder": 3382, "Ġhunter": 3383, "Ġcompetit": 3384, "Ġbicycle": 3385, "Ġaccept": 3386, "ud": 3387, "aky": 3388, "Ġpro": 3389, "Ġones": 3390, "Ġdesign": 3391, "Ġcooked": 3392, "Ġcarp": 3393, "Ġbandage": 3394, "Gra": 3395, "Ġweek": 3396, "Ġtummy": 3397, "Ġstrug": 3398, "Ġsteak": 3399, "Ġrid": 3400, "Ġmeans": 3401, "Ġcounting": 3402, "Ġcomplet": 3403, "Ġchimney": 3404, "ĠSammy": 3405, "Ġtube": 3406, "Ġspinning": 3407, "Ġseal": 3408, "Ġmixer": 3409, "Ġmeal": 3410, "Ġmitten": 3411, "Ġlean": 3412, "Ġlab": 3413, "Ġhive": 3414, "Ġforth": 3415, "Ġcrawl": 3416, "Ġcell": 3417, "ĠPeople": 3418, "ĠJake": 3419, "ado": 3420, "Ġshowing": 3421, "Ġradio": 3422, "Ġdreams": 3423, "Ġdiary": 3424, "Ġcarpet": 3425, "Ġcush": 3426, "Ġbanana": 3427, "ĠTrue": 3428, "ĠPolly": 3429, "Ġed": 3430, "edy": 3431, "Ġregular": 3432, "Ġquarrel": 3433, "Ġnurse": 3434, "Ġmountain": 3435, "Ġhumble": 3436, "Ġhopping": 3437, "Ġgifted": 3438, "Ġgiving": 3439, "Ġfeathers": 3440, "Ġcactus": 3441, "Ġborrow": 3442, "ĠSn": 3443, "usia": 3444, "ither": 3445, "husia": 3446, "book": 3447, "Ġsheet": 3448, "Ġrepair": 3449, "Ġperm": 3450, "Ġlively": 3451, "Ġenthusia": 3452, "Ġdestro": 3453, "Ġcop": 3454, "Ġadd": 3455, "stri": 3456, "arsh": 3457, "Ġvest": 3458, "Ġthread": 3459, "Ġparrot": 3460, "Ġorganize": 3461, "Ġmask": 3462, "Ġlow": 3463, "Ġfilm": 3464, "Ġdelight": 3465, "Ġcushion": 3466, "Ġcharming": 3467, "Ġbull": 3468, "ĠSunny": 3469, "vator": 3470, "unn": 3471, "enny": 3472, "dom": 3473, "Go": 3474, "Ġsunflower": 3475, "Ġshade": 3476, "Ġpopular": 3477, "Ġostri": 3478, "Ġmuff": 3479, "Ġmedic": 3480, "Ġmarry": 3481, "Ġhappening": 3482, "Ġframe": 3483, "Ġforward": 3484, "Ġelevator": 3485, "Ġaut": 3486, "ye": 3487, "ulu": 3488, "ten": 3489, "opter": 3490, "icopter": 3491, "het": 3492, "Ġtrap": 3493, "Ġstretch": 3494, "Ġsle": 3495, "Ġpipe": 3496, "Ġlaughs": 3497, "Ġjudge": 3498, "Ġhelicopter": 3499, "Ġhappiness": 3500, "Ġdeliver": 3501, "Ġcrane": 3502, "Ġattract": 3503, "ĠDan": 3504, "pack": 3505, "omob": 3506, "omobile": 3507, "elery": 3508, "cean": 3509, "case": 3510, "Ġstream": 3511, "Ġstared": 3512, "Ġshells": 3513, "Ġocean": 3514, "Ġharsh": 3515, "Ġears": 3516, "Ġbookcase": 3517, "Ġautomobile": 3518, "Ġattic": 3519, "stic": 3520, "scope": 3521, "roscope": 3522, "nger": 3523, "Sarah": 3524, "Jane": 3525, "Ġyogurt": 3526, "Ġsend": 3527, "Ġrestless": 3528, "Ġmicroscope": 3529, "Ġhay": 3530, "Ġfalls": 3531, "Ġcandle": 3532, "Ġattractive": 3533, "igent": 3534, "Ġunlock": 3535, "Ġsucceed": 3536, "Ġrepe": 3537, "Ġpebble": 3538, "Ġmush": 3539, "Ġmedicine": 3540, "Ġmill": 3541, "Ġitself": 3542, "Ġfigure": 3543, "Ġanswered": 3544, "Mum": 3545, "Jill": 3546, "Ġsub": 3547, "Ġsteps": 3548, "Ġspell": 3549, "Ġsniff": 3550, "Ġscooter": 3551, "Ġpirate": 3552, "Ġnotebook": 3553, "Ġenthusiastic": 3554, "Ġdecide": 3555, "Ġdust": 3556, "Ġdough": 3557, "Ġcupboard": 3558, "Ġcompetitive": 3559, "elligent": 3560, "ating": 3561, "Ġwiped": 3562, "Ġspend": 3563, "Ġshort": 3564, "Ġpotato": 3565, "Ġplayful": 3566, "Ġostrich": 3567, "Ġmeadow": 3568, "Ġmild": 3569, "Ġloudly": 3570, "Ġignorant": 3571, "Ġexcite": 3572, "Ġenjoying": 3573, "Ġcelery": 3574, "rn": 3575, "lcan": 3576, "Ġweigh": 3577, "Ġvolcan": 3578, "Ġteleph": 3579, "Ġtag": 3580, "Ġstaff": 3581, "Ġslept": 3582, "Ġsaus": 3583, "Ġmushroom": 3584, "Ġminer": 3585, "Ġintelligent": 3586, "Ġimpat": 3587, "Ġedge": 3588, "Ġbounced": 3589, "ĠZoom": 3590, "ĠLulu": 3591, "ision": 3592, "iano": 3593, "ature": 3594, "asing": 3595, "Molly": 3596, "Ġvolcano": 3597, "Ġtriangle": 3598, "Ġtelephone": 3599, "Ġswitch": 3600, "Ġskirt": 3601, "Ġskipped": 3602, "Ġscatter": 3603, "Ġsaying": 3604, "Ġpiano": 3605, "Ġmint": 3606, "Ġlaser": 3607, "Ġimpatient": 3608, "ĠBetty": 3609, "Ġtrack": 3610, "Ġsett": 3611, "Ġpoured": 3612, "Ġpony": 3613, "Ġknife": 3614, "Ġharder": 3615, "Ġfalling": 3616, "Ġcreate": 3617, "Ġcircles": 3618, "Ġcity": 3619, "Ġbase": 3620, "Fluffy": 3621, "Billy": 3622, "Ġyoga": 3623, "Ġwishes": 3624, "Ġwheat": 3625, "Ġwander": 3626, "Ġwool": 3627, "Ġtripped": 3628, "Ġstrawberry": 3629, "Ġsmoke": 3630, "Ġson": 3631, "Ġpoints": 3632, "Ġknight": 3633, "Ġdriving": 3634, "Ġdestroy": 3635, "Ġdecorate": 3636, "Ġcrib": 3637, "Ġcleaning": 3638, "Ġblin": 3639, "Ġbin": 3640, "ĠRob": 3641, "ĠRex": 3642, "orable": 3643, "mb": 3644, "hip": 3645, "bul": 3646, "aged": 3647, "Ġticket": 3648, "Ġsneeze": 3649, "Ġlights": 3650, "Ġfriendship": 3651, "Ġeventually": 3652, "Ġbury": 3653, "Ġboxes": 3654, "Ġadorable": 3655, "ti": 3656, "hetti": 3657, "chair": 3658, "bulance": 3659, "amond": 3660, "aghetti": 3661, "aving": 3662, "Ġwalks": 3663, "Ġveil": 3664, "Ġvine": 3665, "Ġtrains": 3666, "Ġsweater": 3667, "Ġsubway": 3668, "Ġsquash": 3669, "Ġshrink": 3670, "Ġrise": 3671, "Ġnicely": 3672, "Ġnation": 3673, "Ġmodest": 3674, "Ġled": 3675, "Ġkay": 3676, "Ġambulance": 3677, "ĠBow": 3678, "work": 3679, "ense": 3680, "Ġslides": 3681, "Ġsym": 3682, "Ġpengu": 3683, "Ġpastry": 3684, "Ġolive": 3685, "Ġmagaz": 3686, "Ġknot": 3687, "Ġhandle": 3688, "Ġdiamond": 3689, "Ġarmchair": 3690, "eon": 3691, "Ġshaking": 3692, "Ġrubbed": 3693, "Ġpoke": 3694, "Ġpigeon": 3695, "Ġpacked": 3696, "Ġmoder": 3697, "Ġkayak": 3698, "Ġfu": 3699, "Ġcord": 3700, "bol": 3701, "apped": 3702, "Give": 3703, "Ġvase": 3704, "Ġpole": 3705, "Ġpeach": 3706, "Ġonce": 3707, "Ġbelt": 3708, "Ġanch": 3709, "was": 3710, "washer": 3711, "utes": 3712, "rill": 3713, "opard": 3714, "azz": 3715, "Ġtap": 3716, "Ġsymbol": 3717, "Ġsupport": 3718, "Ġreturned": 3719, "Ġraft": 3720, "Ġquestions": 3721, "Ġphoto": 3722, "Ġpee": 3723, "Ġmodern": 3724, "Ġminutes": 3725, "Ġgrowl": 3726, "Ġdishwasher": 3727, "Ġcompl": 3728, "Ġarrow": 3729, "Ġanchor": 3730, "Ġax": 3731, "ĠPipp": 3732, "uring": 3733, "urch": 3734, "spit": 3735, "spital": 3736, "per": 3737, "eterm": 3738, "aches": 3739, "Ġtask": 3740, "Ġsurf": 3741, "Ġsoldier": 3742, "Ġsuff": 3743, "Ġparade": 3744, "Ġmay": 3745, "Ġleopard": 3746, "Ġhospital": 3747, "Ġgathered": 3748, "Ġdeterm": 3749, "Ġblackboard": 3750, "Ġaxe": 3751, "ĠLee": 3752, "ĠCl": 3753, "urb": 3754, "tern": 3755, "Well": 3756, "Ġtear": 3757, "Ġstack": 3758, "Ġspeak": 3759, "Ġspear": 3760, "Ġnapkin": 3761, "Ġknows": 3762, "Ġhedge": 3763, "Ġearth": 3764, "Ġbeep": 3765, "Ġbill": 3766, "uth": 3767, "rmomet": 3768, "ject": 3769, "Ġways": 3770, "Ġwallet": 3771, "Ġvideo": 3772, "Ġtorn": 3773, "Ġthemselves": 3774, "Ġten": 3775, "Ġrolling": 3776, "Ġnature": 3777, "Ġlifted": 3778, "Ġgolf": 3779, "Ġgasp": 3780, "Ġflame": 3781, "Ġdisturb": 3782, "Ġchose": 3783, "Ġcelebrate": 3784, "weet": 3785, "iron": 3786, "fa": 3787, "berries": 3788, "aspoon": 3789, "Bye": 3790, "Ġweep": 3791, "Ġtowers": 3792, "Ġteaspoon": 3793, "Ġspaghetti": 3794, "Ġremain": 3795, "Ġmustache": 3796, "Ġmodel": 3797, "Ġmanaged": 3798, "Ġfis": 3799, "ĠEllie": 3800, "rmometer": 3801, "ric": 3802, "angu": 3803, "Ġthinking": 3804, "Ġsilver": 3805, "Ġshut": 3806, "Ġreward": 3807, "Ġoil": 3808, "Ġmeat": 3809, "Ġmagazine": 3810, "Ġjumps": 3811, "Ġchurch": 3812, "ĠLook": 3813, "keep": 3814, "Ġyet": 3815, "Ġtruth": 3816, "Ġspilled": 3817, "Ġserve": 3818, "Ġrever": 3819, "Ġpattern": 3820, "Ġmeeting": 3821, "Ġlibr": 3822, "Ġlit": 3823, "Ġherb": 3824, "Ġfest": 3825, "Ġfastest": 3826, "Ġenv": 3827, "Ġdrawings": 3828, "ĠTina": 3829, "ĠHere": 3830, "ĠBirdy": 3831, "gen": 3832, "ampoo": 3833, "ait": 3834, "?\".": 3835, "Ġwhenever": 3836, "Ġwheels": 3837, "Ġthose": 3838, "Ġsweetie": 3839, "Ġresc": 3840, "Ġrece": 3841, "Ġprep": 3842, "Ġnovel": 3843, "Ġload": 3844, "Ġlying": 3845, "Ġjellyfish": 3846, "Ġfestiv": 3847, "Ġcomplain": 3848, "Ġcarrying": 3849, "Ġbrothers": 3850, "ĠTeddy": 3851, "ĠKim": 3852, "unnel": 3853, "time": 3854, "oby": 3855, "lter": 3856, "ention": 3857, "aser": 3858, "Ġwinter": 3859, "Ġwast": 3860, "Ġtunnel": 3861, "Ġsofa": 3862, "Ġshelter": 3863, "Ġshampoo": 3864, "Ġpolish": 3865, "Ġpit": 3866, "Ġneat": 3867, "Ġmummy": 3868, "Ġjewelry": 3869, "Ġhung": 3870, "Ġcostume": 3871, "Ġbehave": 3872, "umbers": 3873, "ippo": 3874, "Ġwipe": 3875, "Ġwhip": 3876, "Ġtrucks": 3877, "Ġscrew": 3878, "Ġrubb": 3879, "Ġpressed": 3880, "Ġpowder": 3881, "Ġoffered": 3882, "Ġlibrary": 3883, "Ġhotel": 3884, "Ġgiggled": 3885, "Ġfestival": 3886, "Ġbarking": 3887, "Ġallowed": 3888, "Ġer": 3889, "illie": 3890, "igator": 3891, "ete": 3892, "aroo": 3893, "angaroo": 3894, ",âĢĿ": 3895, "Ġyaw": 3896, "Ġscratch": 3897, "Ġsize": 3898, "Ġpopped": 3899, "Ġpicking": 3900, "Ġpenguin": 3901, "Ġnumbers": 3902, "Ġkangaroo": 3903, "Ġinf": 3904, "Ġeye": 3905, "Ġceiling": 3906, "Ġbillboard": 3907, "Ġarg": 3908, "ĠGive": 3909, "Ġiron": 3910, "umbled": 3911, "ready": 3912, "keeper": 3913, "ason": 3914, "!\".": 3915, "Ġtrash": 3916, "Ġsne": 3917, "Ġsausage": 3918, "Ġlangu": 3919, "Ġhanger": 3920, "Ġcomplete": 3921, "Ġbarber": 3922, "ĠBuzzy": 3923, "umpet": 3924, "lies": 3925, "ilot": 3926, "Ġvi": 3927, "Ġtrumpet": 3928, "Ġshocked": 3929, "Ġoats": 3930, "Ġleaving": 3931, "Ġhippo": 3932, "Ġflour": 3933, "Ġearly": 3934, "Ġcooking": 3935, "Ġbaseball": 3936, "Ġalligator": 3937, "Ġalready": 3938, "ĠToday": 3939, "ĠBuzz": 3940, "ailable": 3941, "Joe": 3942, "Ġstops": 3943, "Ġstirred": 3944, "Ġoften": 3945, "Ġoak": 3946, "Ġincl": 3947, "Ġimagine": 3948, "Ġfootball": 3949, "Ġdoesn": 3950, "Ġdetermined": 3951, "ĠAre": 3952, "usie": 3953, "par": 3954, "Ġthermometer": 3955, "Ġsepar": 3956, "Ġsafely": 3957, "Ġresist": 3958, "Ġobser": 3959, "Ġoy": 3960, "Ġmarched": 3961, "Ġlightning": 3962, "Ġjuicy": 3963, "Ġenvious": 3964, "Ġdesk": 3965, "Ġdive": 3966, "Ġcomput": 3967, "Ġchickens": 3968, "Ġblinked": 3969, "ĠFo": 3970, "vision": 3971, "essie": 3972, "essert": 3973, "Ow": 3974, "Ġthu": 3975, "Ġtelevision": 3976, "Ġsuggest": 3977, "Ġsuper": 3978, "Ġpointing": 3979, "Ġopens": 3980, "Ġmetal": 3981, "Ġliz": 3982, "Ġknock": 3983, "Ġinvite": 3984, "Ġhate": 3985, "Ġfrogs": 3986, "Ġexcitement": 3987, "Ġdiscovered": 3988, "Ġdessert": 3989, "Ġavo": 3990, "Ġavailable": 3991, "Ġagainst": 3992, "ured": 3993, "Yay": 3994, "Ġthunder": 3995, "Ġtaller": 3996, "Ġspoke": 3997, "Ġrake": 3998, "Ġpastel": 3999, "Ġmem": 4000, "Ġmath": 4001, "Ġleash": 4002, "Ġlime": 4003, "Ġinvit": 4004, "Ġhook": 4005, "Ġdistant": 4006, "Ġcable": 4007, "ĠMar": 4008, "ĠBinky": 4009, "Ġow": 4010, "ushed": 4011, "opus": 4012, "ison": 4013, "iction": 4014, "iches": 4015, "hic": 4016, "ctopus": 4017, "Ġvehic": 4018, "Ġsuffer": 4019, "Ġsandwiches": 4020, "Ġsandbox": 4021, "Ġprov": 4022, "Ġpretending": 4023, "Ġpractice": 4024, "Ġpost": 4025, "Ġoctopus": 4026, "Ġlic": 4027, "Ġimpro": 4028, "Ġhurry": 4029, "Ġhanging": 4030, "Ġfreez": 4031, "Ġdelay": 4032, "Ġcheck": 4033, "Ġbuttons": 4034, "ines": 4035, "ictionary": 4036, "ctory": 4037, "ations": 4038, "Ġtelling": 4039, "Ġpapers": 4040, "Ġmuffin": 4041, "Ġmakeup": 4042, "Ġlicense": 4043, "Ġlend": 4044, "Ġkindness": 4045, "Ġinfant": 4046, "Ġhappens": 4047, "Ġhall": 4048, "Ġfingers": 4049, "Ġfactory": 4050, "Ġdisappeared": 4051, "Ġcups": 4052, "Ġcomputer": 4053, "Ġcamp": 4054, "Ġboots": 4055, "bbon": 4056, "Ġviol": 4057, "Ġribbon": 4058, "Ġrag": 4059, "Ġpeeked": 4060, "Ġpackage": 4061, "Ġletters": 4062, "Ġgasped": 4063, "Ġfuel": 4064, "Ġchain": 4065, "Ġblouse": 4066, "Ġanyway": 4067, "ĠEverywhere": 4068, "come": 4069, "asis": 4070, "apon": 4071, "aid": 4072, "Ġviolin": 4073, "Ġtwirl": 4074, "Ġswung": 4075, "Ġsounded": 4076, "Ġsight": 4077, "Ġreverse": 4078, "Ġrealised": 4079, "Ġquestion": 4080, "Ġpainter": 4081, "Ġped": 4082, "Ġonion": 4083, "Ġoasis": 4084, "Ġmusician": 4085, "Ġlistening": 4086, "Ġlumber": 4087, "Ġhut": 4088, "Ġgear": 4089, "Ġcricket": 4090, "Ġcabinet": 4091, "Ġadded": 4092, "vice": 4093, "ude": 4094, "ophone": 4095, "Ġweapon": 4096, "Ġvalu": 4097, "Ġtease": 4098, "Ġsplit": 4099, "Ġsent": 4100, "Ġpear": 4101, "Ġpair": 4102, "Ġpun": 4103, "Ġpilot": 4104, "Ġgrabs": 4105, "Ġgrill": 4106, "Ġext": 4107, "Ġener": 4108, "Ġclassroom": 4109, "ĠSnow": 4110, "ĠDolly": 4111, "sity": 4112, "quit": 4113, "ately": 4114, "anas": 4115, "aul": 4116, "See": 4117, "Ġwre": 4118, "Ġvaluable": 4119, "Ġtub": 4120, "Ġsearching": 4121, "Ġsalt": 4122, "Ġraise": 4123, "Ġmaze": 4124, "Ġholes": 4125, "Ġfog": 4126, "Ġeither": 4127, "Ġcliff": 4128, "Ġcherries": 4129, "Ġadmire": 4130, "ĠCarl": 4131, "undry": 4132, "old": 4133, "ippery": 4134, "drobe": 4135, "body": 4136, "Your": 4137, "Re": 4138, "Ġwardrobe": 4139, "Ġvehicle": 4140, "Ġslippery": 4141, "Ġreading": 4142, "Ġquit": 4143, "Ġoyster": 4144, "Ġolder": 4145, "Ġmistakes": 4146, "Ġmen": 4147, "Ġlaundry": 4148, "Ġheat": 4149, "Ġgrowing": 4150, "Ġgoal": 4151, "Ġdreamed": 4152, "Ġbananas": 4153, "ĠHoppy": 4154, "leased": 4155, "acht": 4156, "Al": 4157, "Ġyacht": 4158, "Ġtightly": 4159, "Ġpoked": 4160, "Ġlotion": 4161, "Ġlizard": 4162, "Ġjokes": 4163, "Ġguard": 4164, "Ġcows": 4165, "Ġcolour": 4166, "Ġcalling": 4167, "Ġcards": 4168, "Ġbathe": 4169, "Ġbet": 4170, "ĠPete": 4171, "ĠBig": 4172, "Ġx": 4173, "ugged": 4174, "rophone": 4175, "riger": 4176, "rigerator": 4177, "low": 4178, "aurant": 4179, "Ġunite": 4180, "Ġshone": 4181, "Ġseparate": 4182, "Ġrestaurant": 4183, "Ġrespectful": 4184, "Ġmicrophone": 4185, "Ġhappier": 4186, "Ġhours": 4187, "Ġgaz": 4188, "Ġfreezer": 4189, "Ġfive": 4190, "Ġeraser": 4191, "Ġcooler": 4192, "Ġcur": 4193, "Ġcudd": 4194, "Ġadvice": 4195, "ĠPeter": 4196, "ucture": 4197, "squit": 4198, "squito": 4199, "istol": 4200, "head": 4201, "fee": 4202, "ffee": 4203, "Wait": 4204, "Ġwine": 4205, "Ġwig": 4206, "Ġstructure": 4207, "Ġshouts": 4208, "Ġrefrigerator": 4209, "Ġrefused": 4210, "Ġpistol": 4211, "Ġnavy": 4212, "Ġmule": 4213, "Ġmosquito": 4214, "Ġmedal": 4215, "Ġhelper": 4216, "Ġgir": 4217, "Ġfre": 4218, "Ġdictionary": 4219, "Ġclimbing": 4220, "Ġchess": 4221, "ĠUn": 4222, "ĠRed": 4223, "xy": 4224, "web": 4225, "urnit": 4226, "urniture": 4227, "ulb": 4228, "place": 4229, "omed": 4230, "obweb": 4231, "fast": 4232, "Ch": 4233, "Ġwaste": 4234, "Ġsparkly": 4235, "Ġsaving": 4236, "Ġrules": 4237, "Ġpushing": 4238, "Ġprevent": 4239, "Ġplayground": 4240, "Ġpeek": 4241, "Ġlions": 4242, "Ġlawn": 4243, "Ġgrandpa": 4244, "Ġgain": 4245, "Ġfurniture": 4246, "Ġextra": 4247, "Ġcobweb": 4248, "Ġbreakfast": 4249, "Ġblueberries": 4250, "Ġbulb": 4251, "Ġart": 4252, "Ġabove": 4253, "velope": 4254, "lend": 4255, "helf": 4256, "alley": 4257, "Is": 4258, "Ġyield": 4259, "Ġtools": 4260, "Ġtooth": 4261, "Ġstumbled": 4262, "Ġsneezed": 4263, "Ġriding": 4264, "Ġlid": 4265, "Ġgro": 4266, "Ġfinds": 4267, "Ġenvelope": 4268, "Ġcane": 4269, "Ġbutterflies": 4270, "Ġbookshelf": 4271, "Ġbeans": 4272, "wards": 4273, "ron": 4274, "ola": 4275, "la": 4276, "iest": 4277, "htray": 4278, "cu": 4279, "Ouch": 4280, "Ġwreck": 4281, "Ġweight": 4282, "Ġvalley": 4283, "Ġstickers": 4284, "Ġpenny": 4285, "Ġobject": 4286, "Ġholds": 4287, "Ġharbor": 4288, "Ġenergy": 4289, "Ġdistance": 4290, "Ġashtray": 4291, "ĠWhere": 4292, "seum": 4293, "bbles": 4294, "Grandma": 4295, "Ġwife": 4296, "Ġuniverse": 4297, "Ġtip": 4298, "Ġsupply": 4299, "Ġspir": 4300, "Ġsigh": 4301, "Ġperfume": 4302, "Ġpor": 4303, "Ġnotice": 4304, "Ġmuseum": 4305, "Ġglowing": 4306, "Ġfireplace": 4307, "Ġcoffee": 4308, "Ġchance": 4309, "Ġavoc": 4310, "Ġaccidentally": 4311, "ĠHel": 4312, "asses": 4313, "Ġspirit": 4314, "Ġscore": 4315, "Ġsum": 4316, "Ġrush": 4317, "Ġporch": 4318, "Ġopera": 4319, "Ġok": 4320, "Ġmatt": 4321, "Ġlives": 4322, "Ġlanguage": 4323, "Ġforgave": 4324, "Ġflea": 4325, "Ġenter": 4326, "Ġcountry": 4327, "Ġcalend": 4328, "Ġbreaks": 4329, "ĠPip": 4330, "unday": 4331, "ination": 4332, "arry": 4333, "arm": 4334, "aby": 4335, "'d": 4336, "Ġuniversity": 4337, "Ġunh": 4338, "Ġur": 4339, "Ġsquirrels": 4340, "Ġspoil": 4341, "Ġrhino": 4342, "Ġrot": 4343, "Ġprune": 4344, "Ġmissing": 4345, "Ġmissile": 4346, "Ġmeowed": 4347, "Ġleak": 4348, "Ġimagined": 4349, "Ġhoping": 4350, "Ġfolder": 4351, "Ġdrain": 4352, "Ġcastles": 4353, "Ġcalendar": 4354, "Ġbattery": 4355, "ĠTweet": 4356, "ĠPippin": 4357, "ugg": 4358, "ues": 4359, "ari": 4360, "Little": 4361, "Em": 4362, "Ġswinging": 4363, "Ġmatches": 4364, "Ġinvitation": 4365, "Ġgiven": 4366, "Ġdishes": 4367, "Ġargue": 4368, "Ġagree": 4369, "ĠSunday": 4370, "veal": 4371, "ogn": 4372, "amber": 4373, "Mummy": 4374, "Ġwhistled": 4375, "Ġunhappy": 4376, "Ġstretched": 4377, "Ġsoil": 4378, "Ġshakes": 4379, "Ġroared": 4380, "Ġrecogn": 4381, "Ġrained": 4382, "Ġneedle": 4383, "Ġmessage": 4384, "Ġmattress": 4385, "Ġdisag": 4386, "Ġalarm": 4387, "ĠMum": 4388, "ĠMike": 4389, "ĠLittle": 4390, "utor": 4391, "stairs": 4392, "reeze": 4393, "hero": 4394, "cast": 4395, "Everyone": 4396, "Ġtutor": 4397, "Ġsuperhero": 4398, "Ġstom": 4399, "Ġshield": 4400, "Ġsandcast": 4401, "Ġrushed": 4402, "Ġquiz": 4403, "Ġpoison": 4404, "Ġlip": 4405, "Ġkneel": 4406, "Ġgrocer": 4407, "Ġgas": 4408, "Ġfought": 4409, "Ġexpect": 4410, "Ġcopper": 4411, "Ġchasing": 4412, "Ġbags": 4413, "ĠPat": 4414, "ĠHelp": 4415, "ĠBessie": 4416, "spap": 4417, "riage": 4418, "arnt": 4419, "Will": 4420, "Next": 4421, "Ġunpack": 4422, "Ġsummer": 4423, "Ġstarts": 4424, "Ġseason": 4425, "Ġregret": 4426, "Ġplayer": 4427, "Ġneighb": 4428, "Ġmonkeys": 4429, "Ġmineral": 4430, "Ġlie": 4431, "Ġlearnt": 4432, "Ġins": 4433, "Ġignore": 4434, "Ġchamber": 4435, "Ġcapt": 4436, "Ġbikes": 4437, "Ġbent": 4438, "Ġalive": 4439, "ĠNext": 4440, "res": 4441, "mare": 4442, "iew": 4443, "eer": 4444, "Ġwindows": 4445, "Ġview": 4446, "Ġsticker": 4447, "Ġstable": 4448, "Ġspade": 4449, "Ġsettle": 4450, "Ġplates": 4451, "Ġobserve": 4452, "Ġkinds": 4453, "Ġdancer": 4454, "Ġbeef": 4455, "Ġberry": 4456, "Ġattach": 4457, "Ġaw": 4458, "ĠTed": 4459, "ĠAlice": 4460, "vet": 4461, "thank": 4462, "ffic": 4463, "Ġwarned": 4464, "Ġtrail": 4465, "Ġtheater": 4466, "Ġsir": 4467, "Ġrepeat": 4468, "Ġreveal": 4469, "Ġreind": 4470, "Ġrail": 4471, "Ġpushes": 4472, "Ġpuddles": 4473, "Ġnewspap": 4474, "Ġimage": 4475, "Ġhurting": 4476, "Ġevent": 4477, "Ġcounter": 4478, "Ġchoice": 4479, "Ġchairs": 4480, "Ġbelongs": 4481, "xygen": 4482, "ophy": 4483, "olog": 4484, "ndor": 4485, "elcome": 4486, "ceros": 4487, "aced": 4488, "aked": 4489, "Ġvendor": 4490, "Ġtrophy": 4491, "Ġtrade": 4492, "Ġsocks": 4493, "Ġsandcastle": 4494, "Ġrhinoceros": 4495, "Ġrescue": 4496, "Ġreindeer": 4497, "Ġpurse": 4498, "Ġimprove": 4499, "Ġgrand": 4500, "Ġfixing": 4501, "Ġfireman": 4502, "Ġfavour": 4503, "Ġcaring": 4504, "Ġbeg": 4505, "Ġbathrobe": 4506, "Ġappl": 4507, "Ġapron": 4508, "Ġapolog": 4509, "Ġanywhere": 4510, "ĠFreddy": 4511, "Ġzipper": 4512, "Ġsniffed": 4513, "Ġremove": 4514, "Ġnames": 4515, "Ġcape": 4516, "Ġbreat": 4517, "Ġblueberry": 4518, "Ġahead": 4519, "ĠOr": 4520, "ĠMrs": 4521, "ĠGrace": 4522, "ĠâĢ": 4523, "yth": 4524, "ythm": 4525, "ucet": 4526, "ted": 4527, "night": 4528, "icer": 4529, "chan": 4530, "Ġzoomed": 4531, "Ġwaffle": 4532, "Ġstrip": 4533, "Ġsticky": 4534, "Ġsqueeze": 4535, "Ġshower": 4536, "Ġshivering": 4537, "Ġrhythm": 4538, "Ġprepare": 4539, "Ġpalm": 4540, "Ġolives": 4541, "Ġnewspaper": 4542, "Ġhurric": 4543, "Ġfaucet": 4544, "Ġdelighted": 4545, "Ġcheek": 4546, "Ġboot": 4547, "ĠToby": 4548, "ĠSque": 4549, "ĠMaria": 4550, "ĠCo": 4551, "play": 4552, "ilet": 4553, "astic": 4554, "Mr": 4555, "Daisy": 4556, "Ġtoilet": 4557, "Ġsuggested": 4558, "Ġshovel": 4559, "Ġreplace": 4560, "Ġpigs": 4561, "Ġpermit": 4562, "Ġpassport": 4563, "Ġpages": 4564, "Ġmarriage": 4565, "Ġmass": 4566, "Ġlemonade": 4567, "Ġleaned": 4568, "Ġjunk": 4569, "Ġjail": 4570, "Ġhuman": 4571, "Ġfavourite": 4572, "Ġdreaming": 4573, "Ġcardboard": 4574, "Ġbarks": 4575, "Ġadmired": 4576, "ĠLilly": 4577, "ĠEmily": 4578, "render": 4579, "rage": 4580, "ipping": 4581, "ecause": 4582, "Ġvroom": 4583, "Ġtraffic": 4584, "Ġthrows": 4585, "Ġstud": 4586, "Ġsomewhere": 4587, "Ġrubber": 4588, "Ġputting": 4589, "Ġport": 4590, "Ġpal": 4591, "Ġnightmare": 4592, "Ġinsist": 4593, "Ġhurricane": 4594, "Ġgrape": 4595, "Ġfrowned": 4596, "Ġfreeze": 4597, "Ġfollows": 4598, "Ġflies": 4599, "Ġfisher": 4600, "Ġfeelings": 4601, "Ġdrawer": 4602, "Ġdisplay": 4603, "Ġcourage": 4604, "Ġbrightly": 4605, "Ġapplau": 4606, "ĠFl": 4607, "med": 4608, "ience": 4609, "gl": 4610, "cuss": 4611, "cond": 4612, "Mark": 4613, "Before": 4614, "Ġsurprises": 4615, "Ġsport": 4616, "Ġsecond": 4617, "Ġscold": 4618, "Ġproudly": 4619, "Ġpur": 4620, "Ġoxygen": 4621, "Ġmall": 4622, "Ġgreedy": 4623, "Ġeasily": 4624, "Ġcared": 4625, "Ġacorns": 4626, "ĠFrog": 4627, "imed": 4628, "Buddy": 4629, "Ġweather": 4630, "Ġwaffles": 4631, "Ġtornado": 4632, "Ġthanks": 4633, "Ġstairs": 4634, "Ġstair": 4635, "Ġprovide": 4636, "Ġinclude": 4637, "Ġflapped": 4638, "Ġdiscuss": 4639, "Ġcolourful": 4640, "Ġcaptain": 4641, "Ġbother": 4642, "Ġairport": 4643, "ĠWould": 4644, "ĠSusie": 4645, "ĠRu": 4646, "mbre": 4647, "heart": 4648, "chanic": 4649, "arian": 4650, "Mimi": 4651, "Ġumbre": 4652, "Ġtrem": 4653, "Ġsadly": 4654, "Ġradish": 4655, "Ġrow": 4656, "Ġpulls": 4657, "Ġproblems": 4658, "Ġplanned": 4659, "Ġpears": 4660, "Ġpalace": 4661, "Ġincre": 4662, "Ġfort": 4663, "Ġended": 4664, "Ġclaw": 4665, "Ġbrighter": 4666, "ĠUnder": 4667, "ĠSqueaky": 4668, "ĠBubbles": 4669, "zor": 4670, "oral": 4671, "ifi": 4672, "hter": 4673, "Ġtide": 4674, "Ġsqueezed": 4675, "Ġsnap": 4676, "Ġrazor": 4677, "Ġpup": 4678, "Ġplastic": 4679, "Ġparts": 4680, "Ġmechanic": 4681, "Ġlaughter": 4682, "Ġhearts": 4683, "Ġfloat": 4684, "Ġcrossed": 4685, "Ġcherry": 4686, "Ġbumped": 4687, "ĠSpe": 4688, "ĠY": 4689, "uct": 4690, "rod": 4691, "leton": 4692, "keleton": 4693, "ising": 4694, "iday": 4695, "eration": 4696, "Alice": 4697, "Ġtug": 4698, "Ġstruggle": 4699, "Ġplanes": 4700, "Ġgrant": 4701, "Ġencouraged": 4702, "Ġdare": 4703, "Ġbend": 4704, "ĠJazz": 4705, "ĠFinn": 4706, "ĠBoun": 4707, "zag": 4708, "inarian": 4709, "igzag": 4710, "iform": 4711, "ik": 4712, "glasses": 4713, "eterinarian": 4714, "These": 4715, "Emma": 4716, "Did": 4717, "Ġwriting": 4718, "Ġveterinarian": 4719, "Ġuniform": 4720, "Ġtrusted": 4721, "Ġsunglasses": 4722, "Ġslip": 4723, "Ġrooms": 4724, "Ġranch": 4725, "Ġpanic": 4726, "Ġoffer": 4727, "Ġmoves": 4728, "Ġmassage": 4729, "Ġmarried": 4730, "Ġintrod": 4731, "Ġgrocery": 4732, "Ġfollowing": 4733, "Ġelephants": 4734, "Ġdrops": 4735, "Ġdem": 4736, "Ġbuckle": 4737, "Ġblowing": 4738, "Ġavocado": 4739, "ĠSharing": 4740, "ĠFifi": 4741, "ĠEnd": 4742, "ĠBee": 4743, "Ġwinning": 4744, "Ġwarn": 4745, "Ġunderground": 4746, "Ġumbrella": 4747, "Ġthrowing": 4748, "Ġsunset": 4749, "Ġsplashing": 4750, "Ġsparkled": 4751, "Ġslap": 4752, "Ġskeleton": 4753, "Ġpleased": 4754, "Ġpine": 4755, "Ġpage": 4756, "Ġoperation": 4757, "Ġnetwork": 4758, "Ġleather": 4759, "Ġhanded": 4760, "Ġfresh": 4761, "Ġfisherman": 4762, "Ġexcitedly": 4763, "Ġeaten": 4764, "Ġdisappear": 4765, "Ġbeauty": 4766, "Ġble": 4767, "ĠPepper": 4768, "ĠOw": 4769, "ĠHave": 4770, "ĠFroggy": 4771, "ĠBaby": 4772, "ween": 4773, "uggage": 4774, "reek": 4775, "iki": 4776, "enry": 4777, "eme": 4778, "..": 4779, "Ġsurrender": 4780, "Ġstrike": 4781, "Ġsoftly": 4782, "Ġsnail": 4783, "Ġshoulder": 4784, "Ġracing": 4785, "Ġprunes": 4786, "Ġpitch": 4787, "Ġluggage": 4788, "Ġjogged": 4789, "Ġevening": 4790, "Ġcandles": 4791, "Ġcreek": 4792, "Ġbricks": 4793, "Ġbrick": 4794, "Ġbetween": 4795, "Ġbelieved": 4796, "Ġbears": 4797, "ĠMe": 4798, "ĠGrandpa": 4799, "ĠFox": 4800, "mem": 4801, "inking": 4802, "ero": 4803, "emember": 4804, "Remy": 4805, "All": 4806, "Ġwisdom": 4807, "Ġsteel": 4808, "Ġsoak": 4809, "Ġsmells": 4810, "Ġreminded": 4811, "Ġmystery": 4812, "Ġimpressed": 4813, "Ġheads": 4814, "Ġexamine": 4815, "Ġdemand": 4816, "Ġbaking": 4817, "ĠZoomy": 4818, "ĠZip": 4819, "ĠSm": 4820, "ĠLola": 4821, "ores": 4822, "omm": 4823, "ommend": 4824, "lex": 4825, "liday": 4826, "Yuck": 4827, "Moral": 4828, "Jenny": 4829, "Ġsnug": 4830, "Ġrestore": 4831, "Ġrecommend": 4832, "Ġprints": 4833, "Ġknob": 4834, "Ġhopes": 4835, "Ġholiday": 4836, "Ġexplored": 4837, "Ġentered": 4838, "Ġduring": 4839, "Ġdried": 4840, "ĠTony": 4841, "ĠPaul": 4842, "ĠMummy": 4843, "ĠDave": 4844, "quake": 4845, "inda": 4846, "ium": 4847, "ement": 4848, "atched": 4849, "affe": 4850, "apping": 4851, "Welcome": 4852, "Ġtwirled": 4853, "Ġtuna": 4854, "Ġstarting": 4855, "Ġsudden": 4856, "Ġrabbits": 4857, "Ġpinch": 4858, "Ġmeas": 4859, "Ġlabel": 4860, "Ġhills": 4861, "Ġgiraffe": 4862, "Ġearthquake": 4863, "Ġdoors": 4864, "Ġcutting": 4865, "Ġchores": 4866, "Ġbreathe": 4867, "Ġbouncing": 4868, "Ġbleed": 4869, "Ġbelow": 4870, "ĠSpeedy": 4871, "ĠSee": 4872, "ĠRo": 4873, "ĠV": 4874, "rise": 4875, "noon": 4876, "choo": 4877, "Not": 4878, "Ġsweetheart": 4879, "Ġsunrise": 4880, "Ġshrugged": 4881, "Ġsimp": 4882, "Ġreceive": 4883, "Ġplaced": 4884, "Ġpedal": 4885, "Ġpeanuts": 4886, "Ġpaid": 4887, "Ġopin": 4888, "Ġmarks": 4889, "Ġletting": 4890, "Ġgym": 4891, "Ġflap": 4892, "Ġdear": 4893, "Ġcreatures": 4894, "Ġcontent": 4895, "Ġclaws": 4896, "Ġburned": 4897, "Ġbrus": 4898, "Ġafternoon": 4899, "sed": 4900, "ittens": 4901, "Sh": 4902, "Leo": 4903, "Ġvac": 4904, "Ġtremble": 4905, "Ġtrave": 4906, "Ġsolved": 4907, "Ġskill": 4908, "Ġshouting": 4909, "Ġshopkeeper": 4910, "Ġpunish": 4911, "Ġencourage": 4912, "Ġcoats": 4913, "ups": 4914, "quest": 4915, "look": 4916, "Qu": 4917, "Mary": 4918, "Lisa": 4919, "Fred": 4920, "Ann": 4921, "Ġworse": 4922, "Ġsnowball": 4923, "Ġsliding": 4924, "Ġrequest": 4925, "Ġraining": 4926, "Ġoh": 4927, "Ġnews": 4928, "Ġinsisted": 4929, "Ġhon": 4930, "Ġfireworks": 4931, "Ġfallen": 4932, "Ġclapping": 4933, "Ġchewed": 4934, "ĠWho": 4935, "ĠUncle": 4936, "ĠMillie": 4937, "ĠJohnny": 4938, "ship": 4939, "adium": 4940, "ĠâĢĵ": 4941, "Ġstadium": 4942, "Ġsigns": 4943, "Ġscoop": 4944, "Ġquite": 4945, "Ġmailman": 4946, "Ġluck": 4947, "Ġinst": 4948, "Ġhadn": 4949, "Ġgiggle": 4950, "Ġdecorations": 4951, "Ġchecked": 4952, "Ġcatching": 4953, "Ġbites": 4954, "Ġbeds": 4955, "ĠRobby": 4956, "ĠOlive": 4957, "usty": 4958, "urther": 4959, "laimed": 4960, "anna": 4961, "Woof": 4962, "Bella": 4963, "Ġwhistling": 4964, "Ġsprayed": 4965, "Ġpulling": 4966, "Ġnobody": 4967, "Ġmyself": 4968, "Ġmention": 4969, "Ġhers": 4970, "Ġgrowled": 4971, "Ġgifts": 4972, "Ġfurther": 4973, "Ġeagerly": 4974, "Ġdeeper": 4975, "ĠJames": 4976, "ĠIs": 4977, "ĠGr": 4978, "ĠDino": 4979, "speci": 4980, "specially": 4981, "shion": 4982, "osed": 4983, "ippy": 4984, "Ġworms": 4985, "Ġtreasures": 4986, "Ġstomach": 4987, "Ġsprink": 4988, "Ġrelease": 4989, "Ġreaches": 4990, "Ġminute": 4991, "Ġkeeping": 4992, "Ġfashion": 4993, "Ġexclaimed": 4994, "Ġespecially": 4995, "Ġchirp": 4996, "Ġbrushes": 4997, "Ġbatteries": 4998, "ĠMittens": 4999, "ĠLinda": 5000, "ĠBop": 5001, "unately": 5002, "sters": 5003, "right": 5004, "looking": 5005, "gling": 5006, "abbit": 5007, "Daddy": 5008, "Ġvacation": 5009, "Ġunderstanding": 5010, "Ġstreng": 5011, "Ġstrang": 5012, "Ġsteam": 5013, "Ġshined": 5014, "Ġprayed": 5015, "Ġplays": 5016, "Ġpiles": 5017, "Ġpeaches": 5018, "Ġeats": 5019, "Ġburied": 5020, "Ġbrings": 5021, "Ġapplaud": 5022, "Ġallow": 5023, "ĠLe": 5024, "ĠGood": 5025, "ĠClara": 5026, "yer": 5027, "lvet": 5028, "arlie": 5029, "Ġzipped": 5030, "Ġyawned": 5031, "Ġwhisper": 5032, "Ġweeping": 5033, "Ġweb": 5034, "Ġwaving": 5035, "Ġvelvet": 5036, "Ġvanished": 5037, "Ġsupposed": 5038, "Ġstrength": 5039, "Ġsimple": 5040, "Ġscolded": 5041, "Ġroot": 5042, "Ġresting": 5043, "Ġquietly": 5044, "Ġpupil": 5045, "Ġpaints": 5046, "Ġlawyer": 5047, "Ġlily": 5048, "Ġgazed": 5049, "Ġfolded": 5050, "Ġcrow": 5051, "Ġbuzz": 5052, "Ġbackpack": 5053, "ĠSk": 5054, "ĠLucky": 5055, "ĠEventually": 5056, "ĠAlex": 5057, "sect": 5058, "redient": 5059, "reat": 5060, "otten": 5061, "ingredient": 5062, "htub": 5063, "gie": 5064, "erc": 5065, "Today": 5066, "Ġyucky": 5067, "Ġwags": 5068, "Ġupstairs": 5069, "Ġtour": 5070, "Ġthumb": 5071, "Ġstrangers": 5072, "Ġsafari": 5073, "Ġrecognize": 5074, "Ġneighbour": 5075, "Ġlands": 5076, "Ġhits": 5077, "Ġfrost": 5078, "Ġexerc": 5079, "Ġdressed": 5080, "Ġdigging": 5081, "Ġcrash": 5082, "Ġcartoon": 5083, "Ġbouncy": 5084, "Ġbathtub": 5085, "Ġago": 5086, "Ġingredient": 5087, "xture": 5088, "xu": 5089, "uxu": 5090, "irring": 5091, "eep": 5092, "anny": 5093, "Ġyawn": 5094, "Ġwest": 5095, "Ġsparkle": 5096, "Ġsailing": 5097, "Ġnowhere": 5098, "Ġmenu": 5099, "Ġlined": 5100, "Ġkneeled": 5101, "Ġincrease": 5102, "Ġfrosting": 5103, "Ġflood": 5104, "Ġexit": 5105, "Ġcakes": 5106, "Ġblink": 5107, "Ġbadly": 5108, "Ġbreeze": 5109, "Ġattention": 5110, "Ġach": 5111, "ĠEverything": 5112, "ĠElly": 5113, "ĠEl": 5114, "resses": 5115, "ories": 5116, "ived": 5117, "Yum": 5118, "Ġspots": 5119, "Ġsneak": 5120, "Ġsnapped": 5121, "Ġrelaxed": 5122, "Ġquack": 5123, "Ġluxu": 5124, "Ġinstr": 5125, "Ġingredients": 5126, "Ġimagination": 5127, "Ġhist": 5128, "Ġguessed": 5129, "Ġfiref": 5130, "Ġclosely": 5131, "Ġcalls": 5132, "Ġbak": 5133, "ĠWhenever": 5134, "ĠMandy": 5135, "ĠKiki": 5136, "istle": 5137, "isses": 5138, "icky": 5139, "cky": 5140, "arky": 5141, "apa": 5142, "With": 5143, "Ready": 5144, "Or": 5145, "'ve": 5146, "Ġweighed": 5147, "Ġtracks": 5148, "Ġswamp": 5149, "Ġstudying": 5150, "Ġstraight": 5151, "Ġstirring": 5152, "Ġsetting": 5153, "Ġscreams": 5154, "Ġripped": 5155, "Ġpearl": 5156, "Ġpad": 5157, "Ġmemory": 5158, "Ġmanage": 5159, "Ġkingdom": 5160, "Ġkisses": 5161, "Ġinsect": 5162, "Ġhistory": 5163, "Ġheel": 5164, "Ġeasier": 5165, "Ġdestroyed": 5166, "Ġbirdc": 5167, "Ġappro": 5168, "ĠZara": 5169, "ĠDanny": 5170, "ĠAnnie": 5171, "utter": 5172, "sterday": 5173, "ophie": 5174, "ib": 5175, "fortunately": 5176, "esterday": 5177, "ab": 5178, "Ġwashing": 5179, "Ġwob": 5180, "Ġurge": 5181, "Ġunlocked": 5182, "Ġtong": 5183, "Ġspaceship": 5184, "Ġsneez": 5185, "Ġshot": 5186, "Ġseeing": 5187, "Ġprop": 5188, "Ġmelted": 5189, "Ġfro": 5190, "Ġflat": 5191, "Ġequ": 5192, "Ġbirdcage": 5193, "Ġbalan": 5194, "ĠEach": 5195, "ĠBumpy": 5196, "ĠĊ": 5197, "uesday": 5198, "nie": 5199, "mm": 5200, "men": 5201, "aved": 5202, "Ġstruggled": 5203, "Ġprett": 5204, "Ġknown": 5205, "Ġfloated": 5206, "Ġeast": 5207, "Ġdresses": 5208, "Ġbye": 5209, "Ġbuckets": 5210, "Ġbur": 5211, "Ġapart": 5212, "ĠTuesday": 5213, "ĠSandy": 5214, "ĠRuby": 5215, "ĠJoey": 5216, "ĠHo": 5217, "walk": 5218, "ucked": 5219, "izing": 5220, "ites": 5221, "ipment": 5222, "igi": 5223, "ecture": 5224, "big": 5225, "Because": 5226, "Ġtwisted": 5227, "Ġtomatoes": 5228, "Ġstro": 5229, "Ġspoons": 5230, "Ġsnuggled": 5231, "Ġseats": 5232, "Ġreceived": 5233, "Ġrecor": 5234, "Ġpinched": 5235, "Ġmemories": 5236, "Ġluxury": 5237, "Ġlecture": 5238, "Ġintroduce": 5239, "Ġinch": 5240, "Ġideas": 5241, "Ġforgotten": 5242, "Ġexper": 5243, "Ġcras": 5244, "Ġclimbs": 5245, "Ġappre": 5246, "Ġadmir": 5247, "ĠBounce": 5248, "ogo": 5249, "oved": 5250, "oe": 5251, "izes": 5252, "ilies": 5253, "hest": 5254, "dam": 5255, "aws": 5256, "ah": 5257, "Momo": 5258, "Meow": 5259, "Ġwoof": 5260, "Ġswims": 5261, "Ġsits": 5262, "Ġroots": 5263, "Ġmixing": 5264, "Ġmelting": 5265, "Ġmeasured": 5266, "Ġlicks": 5267, "Ġkicking": 5268, "Ġdisagree": 5269, "Ġconf": 5270, "Ġcolours": 5271, "Ġbowed": 5272, "Ġbleeding": 5273, "Ġblood": 5274, "Ġapprec": 5275, "Ġappreci": 5276, "ĠSmith": 5277, "ĠHenry": 5278, "isty": 5279, "iggly": 5280, "icing": 5281, "hood": 5282, "ccer": 5283, "Ġwatered": 5284, "Ġwarmth": 5285, "Ġtwisty": 5286, "Ġtwink": 5287, "Ġtoe": 5288, "Ġteaching": 5289, "Ġsurround": 5290, "Ġstamps": 5291, "Ġsorts": 5292, "Ġsore": 5293, "Ġsidewalk": 5294, "Ġsettled": 5295, "Ġsince": 5296, "Ġpoppy": 5297, "Ġplanted": 5298, "Ġofficer": 5299, "Ġmonsters": 5300, "Ġhi": 5301, "Ġfloating": 5302, "Ġequipment": 5303, "Ġdrinks": 5304, "Ġdads": 5305, "Ġcollection": 5306, "Ġbaked": 5307, "Ġattached": 5308, "ĠStar": 5309, "ĠRabbit": 5310, "ĠPr": 5311, "ĠDog": 5312, "ĠBill": 5313, "please": 5314, "orge": 5315, "kins": 5316, "ips": 5317, "ges": 5318, "ena": 5319, "eorge": 5320, "bie": 5321, "akes": 5322, "aded": 5323, "achel": 5324, "acked": 5325, "Sp": 5326, "Bu": 5327, "Blue": 5328, "Ġsoccer": 5329, "Ġskills": 5330, "Ġshed": 5331, "Ġrested": 5332, "Ġraised": 5333, "Ġrul": 5334, "Ġpuzzles": 5335, "Ġpies": 5336, "Ġmouths": 5337, "Ġlines": 5338, "Ġignored": 5339, "Ġheaded": 5340, "Ġgolden": 5341, "Ġexercise": 5342, "Ġcurled": 5343, "Ġcandies": 5344, "Ġbravely": 5345, "Ġappear": 5346, "ĠCoco": 5347, "ĠBeep": 5348, "ring": 5349, "ne": 5350, "ission": 5351, "ien": 5352, "ction": 5353, "bigail": 5354, "Ġzigzag": 5355, "Ġwiggle": 5356, "Ġwaist": 5357, "Ġtongue": 5358, "Ġsucceeded": 5359, "Ġstudied": 5360, "Ġsew": 5361, "Ġscattered": 5362, "Ġrang": 5363, "Ġpotatoes": 5364, "Ġplaytime": 5365, "Ġpirates": 5366, "Ġopinion": 5367, "Ġmudd": 5368, "Ġjewels": 5369, "Ġjazz": 5370, "Ġisn": 5371, "Ġfoods": 5372, "Ġdaisy": 5373, "Ġbreaking": 5374, "Ġboom": 5375, "ĠWhistle": 5376, "ĠThese": 5377, "ĠGigi": 5378, "ĠFinny": 5379, "ĠDr": 5380, "oh": 5381, "indy": 5382, "ieve": 5383, "ents": 5384, "bies": 5385, "atty": 5386, "ales": 5387, "Quack": 5388, "Ok": 5389, "Eventually": 5390, "Andy": 5391, "Ġworth": 5392, "Ġwarning": 5393, "Ġwaits": 5394, "Ġwagging": 5395, "Ġturning": 5396, "Ġtrapped": 5397, "Ġtonight": 5398, "Ġstitch": 5399, "Ġspit": 5400, "Ġsix": 5401, "Ġresp": 5402, "Ġprice": 5403, "Ġpermission": 5404, "Ġpra": 5405, "Ġopening": 5406, "Ġnone": 5407, "Ġmuddy": 5408, "Ġmeow": 5409, "Ġmarching": 5410, "Ġlemons": 5411, "Ġhurried": 5412, "Ġhissed": 5413, "Ġheroes": 5414, "Ġchewing": 5415, "Ġcelebrated": 5416, "Ġbehaved": 5417, "Ġbegged": 5418, "Ġbang": 5419, "ĠTw": 5420, "ĠJul": 5421, "ĠGogo": 5422, "umble": 5423, "osie": 5424, "omething": 5425, "oves": 5426, "ictory": 5427, "do": 5428, "ding": 5429, "Mmm": 5430, "Ġwinner": 5431, "Ġwelcomed": 5432, "Ġvoices": 5433, "Ġsoared": 5434, "Ġshock": 5435, "Ġscru": 5436, "Ġscratched": 5437, "Ġscaring": 5438, "Ġsizes": 5439, "Ġruler": 5440, "Ġpolar": 5441, "Ġpetals": 5442, "Ġours": 5443, "Ġornaments": 5444, "Ġfears": 5445, "Ġcollected": 5446, "Ġalright": 5447, "Ġaccepted": 5448, "ĠPapa": 5449, "ĠLike": 5450, "ĠLater": 5451, "year": 5452, "une": 5453, "umes": 5454, "rr": 5455, "omeday": 5456, "mbling": 5457, "inter": 5458, "ilo": 5459, "go": 5460, "boo": 5461, "ays": 5462, "Remember": 5463, "Ha": 5464, "Ġwatches": 5465, "Ġvisited": 5466, "Ġvanish": 5467, "Ġvictory": 5468, "Ġtrembling": 5469, "Ġtheirs": 5470, "Ġtallest": 5471, "Ġspike": 5472, "Ġsorted": 5473, "Ġscrubbed": 5474, "Ġsomeday": 5475, "Ġpurred": 5476, "Ġpride": 5477, "Ġpoliceman": 5478, "Ġpaused": 5479, "Ġmovies": 5480, "Ġminerals": 5481, "Ġmentioned": 5482, "Ġhitting": 5483, "Ġfault": 5484, "Ġdrinking": 5485, "Ġdisagre": 5486, "Ġcostumes": 5487, "Ġbabies": 5488, "Ġbank": 5489, "Ġapologized": 5490, "Ġanswers": 5491, "Ġairpl": 5492, "Ġadmiring": 5493, "ĠToto": 5494, "ĠOwl": 5495, "ĠKing": 5496, "ĠGod": 5497, "ĠCar": 5498, "ĠBug": 5499, "ĠBree": 5500, "sing": 5501, "pr": 5502, "ped": 5503, "ored": 5504, "ops": 5505, "mother": 5506, "etch": 5507, "bers": 5508, "anges": 5509, "Peter": 5510, "Ducky": 5511, "Ġwooden": 5512, "Ġwins": 5513, "Ġwink": 5514, "Ġtucked": 5515, "Ġsprinkles": 5516, "Ġpeel": 5517, "Ġpatterns": 5518, "Ġmister": 5519, "Ġlets": 5520, "Ġlung": 5521, "Ġgloves": 5522, "Ġfishing": 5523, "Ġdire": 5524, "Ġcub": 5525, "Ġapproached": 5526, "Ġactions": 5527, "Ġacted": 5528, "ĠSte": 5529, "ĠSnowy": 5530, "ĠSu": 5531, "ĠRoo": 5532, "ĠRatty": 5533, "ĠPenny": 5534, "ĠHappy": 5535, "ĠFollow": 5536, "isten": 5537, "iggy": 5538, "ety": 5539, "avid": 5540, "Bird": 5541, "\",": 5542, "!\",": 5543, "Ġzero": 5544, "Ġyelling": 5545, "Ġtoes": 5546, "Ġteaches": 5547, "Ġteasing": 5548, "Ġtastes": 5549, "Ġsuits": 5550, "Ġstruck": 5551, "Ġstealing": 5552, "Ġshouldn": 5553, "Ġserved": 5554, "Ġselling": 5555, "Ġruin": 5556, "Ġrocking": 5557, "Ġowned": 5558, "Ġoat": 5559, "Ġmuscles": 5560, "Ġmatched": 5561, "Ġmice": 5562, "Ġherbs": 5563, "Ġflags": 5564, "Ġfirefight": 5565, "Ġfamilies": 5566, "Ġfed": 5567, "Ġemer": 5568, "Ġdeser": 5569, "Ġdecorated": 5570, "Ġcuddled": 5571, "Ġcrept": 5572, "Ġcollecting": 5573, "ĠZoe": 5574, "ĠWally": 5575, "ĠSomeone": 5576, "ĠSomething": 5577, "ĠRachel": 5578, "ĠNot": 5579, "ĠLiz": 5580, "ĠCharlie": 5581, "ĠBoth": 5582, "zen": 5583, "ssible": 5584, "son": 5585, "sit": 5586, "rs": 5587, "otos": 5588, "hind": 5589, "embers": 5590, "ctly": 5591, "allow": 5592, "Sometimes": 5593, "Bobby": 5594, "'.": 5595, "Ġzooming": 5596, "Ġworker": 5597, "Ġwherever": 5598, "Ġurged": 5599, "Ġtickets": 5600, "Ġsorting": 5601, "Ġsighs": 5602, "Ġrides": 5603, "Ġrevealed": 5604, "Ġremained": 5605, "Ġremembers": 5606, "Ġphotos": 5607, "Ġpencils": 5608, "Ġpedals": 5609, "Ġpastries": 5610, "Ġnapping": 5611, "Ġmuffins": 5612, "Ġmotion": 5613, "Ġmoments": 5614, "Ġlearns": 5615, "Ġkeys": 5616, "Ġjogging": 5617, "Ġgrandmother": 5618, "Ġfrozen": 5619, "Ġflav": 5620, "Ġdisturbed": 5621, "Ġcrunch": 5622, "Ġcones": 5623, "Ġcomforted": 5624, "Ġblankets": 5625, "Ġbeat": 5626, "Ġappreciate": 5627, "ĠTilly": 5628, "ĠSophie": 5629, "ĠRe": 5630, "ĠPaws": 5631, "ĠKate": 5632, "ĠJon": 5633, "ĠBo": 5634, "ĠBl": 5635, "zie": 5636, "vest": 5637, "vestig": 5638, "urprise": 5639, "medi": 5640, "mediately": 5641, "ishing": 5642, "antly": 5643, "annah": 5644, "abby": 5645, "Really": 5646, "Dave": 5647, "Ġwandered": 5648, "Ġsplashes": 5649, "Ġskipping": 5650, "Ġsecrets": 5651, "Ġsafety": 5652, "Ġsadness": 5653, "Ġrip": 5654, "Ġresult": 5655, "Ġproper": 5656, "Ġpresents": 5657, "Ġpolished": 5658, "Ġpetted": 5659, "Ġperfectly": 5660, "Ġleader": 5661, "Ġinstruct": 5662, "Ġinvestig": 5663, "Ġhappiest": 5664, "Ġgirls": 5665, "Ġcreated": 5666, "Ġcaut": 5667, "ĠWiggly": 5668, "ĠRosie": 5669, "ĠPippa": 5670, "ĠBefore": 5671, "iers": 5672, "gency": 5673, "coon": 5674, "aped": 5675, "Uh": 5676, "Susie": 5677, "Paul": 5678, "Jen": 5679, "Ġwed": 5680, "Ġtwigs": 5681, "Ġtraveled": 5682, "Ġtexture": 5683, "Ġstrings": 5684, "Ġspraying": 5685, "Ġsoldiers": 5686, "Ġsoaked": 5687, "Ġscales": 5688, "Ġsip": 5689, "Ġsings": 5690, "Ġripe": 5691, "Ġrepeated": 5692, "Ġpunished": 5693, "Ġprotecting": 5694, "Ġpoking": 5695, "Ġordered": 5696, "Ġoranges": 5697, "Ġmountains": 5698, "Ġmittens": 5699, "Ġmarbles": 5700, "Ġlandscape": 5701, "Ġladyb": 5702, "Ġknelt": 5703, "Ġkeeps": 5704, "Ġkitty": 5705, "Ġjoking": 5706, "Ġhorses": 5707, "Ġfields": 5708, "Ġexperience": 5709, "Ġdisagreed": 5710, "Ġdared": 5711, "Ġcrunchy": 5712, "Ġcrashed": 5713, "Ġcontest": 5714, "Ġbuildings": 5715, "Ġbeamed": 5716, "Ġann": 5717, "Ġamazement": 5718, "Ġagrees": 5719, "ĠSpark": 5720, "ĠSc": 5721, "ĠHoot": 5722, "ĠAlways": 5723, "osity": 5724, "nce": 5725, "icorn": 5726, "bey": 5727, "atie": 5728, "Zoom": 5729, "Would": 5730, "Surprise": 5731, "First": 5732, "!'": 5733, "Ġworks": 5734, "Ġwedding": 5735, "Ġwound": 5736, "Ġunicorn": 5737, "Ġtrips": 5738, "Ġthird": 5739, "Ġtim": 5740, "Ġsweeties": 5741, "Ġslice": 5742, "Ġslapped": 5743, "Ġshivered": 5744, "Ġseems": 5745, "Ġrespon": 5746, "Ġremoved": 5747, "Ġpraised": 5748, "Ġpiggy": 5749, "Ġpeas": 5750, "Ġobey": 5751, "Ġnicer": 5752, "Ġlollipops": 5753, "Ġlick": 5754, "Ġlaid": 5755, "Ġinvestigate": 5756, "Ġinstructions": 5757, "Ġimportance": 5758, "Ġhesit": 5759, "Ġgranted": 5760, "Ġgrin": 5761, "Ġglowed": 5762, "Ġglitter": 5763, "Ġemergency": 5764, "Ġdifference": 5765, "Ġdots": 5766, "Ġdied": 5767, "Ġcuddle": 5768, "Ġcompany": 5769, "Ġchases": 5770, "Ġcans": 5771, "Ġbottles": 5772, "Ġblows": 5773, "Ġairplane": 5774, "Ġacting": 5775, "Ġawe": 5776, "ĠSun": 5777, "ĠHippy": 5778, "ĠChe": 5779, "ĠAn": 5780, "ĠAbigail": 5781, "urry": 5782, "uckily": 5783, "ouch": 5784, "lowly": 5785, "ities": 5786, "ishy": 5787, "house": 5788, "ern": 5789, "agers": 5790, "Un": 5791, "Tr": 5792, "Miss": 5793, "Boo": 5794, "Ah": 5795, "Ġwonders": 5796, "Ġvillagers": 5797, "Ġtricked": 5798, "Ġsurrounded": 5799, "Ġstuffed": 5800, "Ġsmiley": 5801, "Ġringing": 5802, "Ġrings": 5803, "Ġprotected": 5804, "Ġpea": 5805, "Ġmama": 5806, "Ġhonk": 5807, "Ġhighest": 5808, "Ġhen": 5809, "Ġfetch": 5810, "Ġdraws": 5811, "Ġdoggy": 5812, "Ġcatches": 5813, "Ġburning": 5814, "Ġbegin": 5815, "Ġbedtime": 5816, "Ġarea": 5817, "ĠWater": 5818, "ĠLeave": 5819, "ĠLizzy": 5820, "ĠHarry": 5821, "ĠBuggy": 5822, "va": 5823, "iren": 5824, "ided": 5825, "ho": 5826, "ggy": 5827, "cious": 5828, "affes": 5829, "Tiny": 5830, "Poppy": 5831, "Jake": 5832, "Goodbye": 5833, "Ġwiz": 5834, "Ġswoop": 5835, "Ġsteady": 5836, "Ġsneezing": 5837, "Ġsmallest": 5838, "Ġshopping": 5839, "Ġshadows": 5840, "Ġsiren": 5841, "Ġribbons": 5842, "Ġrequested": 5843, "Ġpowers": 5844, "Ġnaps": 5845, "Ġmuscle": 5846, "Ġlips": 5847, "Ġimmediately": 5848, "Ġhardly": 5849, "Ġgiraffes": 5850, "Ġflutter": 5851, "Ġexpected": 5852, "Ġdownstairs": 5853, "Ġdecides": 5854, "Ġcuriosity": 5855, "Ġcautious": 5856, "Ġbroom": 5857, "Ġbalancing": 5858, "Ġactually": 5859, "ĠStop": 5860, "ĠRocky": 5861, "ĠOlly": 5862, "ĠIts": 5863, "ĠEveryday": 5864, "ĠDizzy": 5865, "ĠCr": 5866, "ĠAdam": 5867, "scin": 5868, "ingo": 5869, "ides": 5870, "iving": 5871, "aren": 5872, "aggie": 5873, "abel": 5874, "Yummy": 5875, "Ollie": 5876, "Have": 5877, "Ella": 5878, "An": 5879, "Achoo": 5880, "Ġwrist": 5881, "Ġwizard": 5882, "Ġvideos": 5883, "Ġtails": 5884, "Ġsunlight": 5885, "Ġstaring": 5886, "Ġsneaky": 5887, "Ġseesaw": 5888, "Ġrubbing": 5889, "Ġprecious": 5890, "Ġpillows": 5891, "Ġpause": 5892, "Ġorganizing": 5893, "Ġneither": 5894, "Ġloving": 5895, "Ġhorns": 5896, "Ġhops": 5897, "Ġguns": 5898, "Ġgaze": 5899, "Ġgathering": 5900, "Ġgust": 5901, "Ġfolding": 5902, "Ġfascin": 5903, "Ġfaced": 5904, "Ġfart": 5905, "Ġdusty": 5906, "Ġdiving": 5907, "Ġdesert": 5908, "Ġcrabs": 5909, "Ġbringing": 5910, "Ġannoy": 5911, "Ġachieve": 5912, "ĠOut": 5913, "ĠMilo": 5914, "ĠMilly": 5915, "ĠGrumpy": 5916, "ĠEarth": 5917, "ĠDavid": 5918, "use": 5919, "step": 5920, "izzie": 5921, "ha": 5922, "fit": 5923, "boat": 5924, "bbing": 5925, "atches": 5926, "Rex": 5927, "Mandy": 5928, "During": 5929, "Ġwrites": 5930, "Ġwinked": 5931, "Ġwiggled": 5932, "Ġweren": 5933, "Ġsilence": 5934, "Ġrule": 5935, "Ġrecorded": 5936, "Ġreads": 5937, "Ġreleased": 5938, "Ġprinted": 5939, "Ġpets": 5940, "Ġple": 5941, "Ġnails": 5942, "Ġcrawling": 5943, "Ġbaker": 5944, "ĠSkip": 5945, "ĠRolly": 5946, "ĠRay": 5947, "ĠPo": 5948, "ĠMoon": 5949, "ĠLou": 5950, "ĠKip": 5951, "ĠGeorge": 5952, "ĠFirst": 5953, "ĠBeaky": 5954, "ĠBecause": 5955, "wk": 5956, "uckled": 5957, "oming": 5958, "nect": 5959, "lowers": 5960, "loe": 5961, "lier": 5962, "ivery": 5963, "angled": 5964, "actly": 5965, "Whiskers": 5966, "Rose": 5967, "Grandpa": 5968, "Bet": 5969, "Ġzookeeper": 5970, "Ġunited": 5971, "Ġtwin": 5972, "Ġtravell": 5973, "Ġtimer": 5974, "Ġtalent": 5975, "Ġsweat": 5976, "Ġstruggling": 5977, "Ġsticking": 5978, "Ġstays": 5979, "Ġsty": 5980, "Ġstare": 5981, "Ġsoaring": 5982, "Ġsneaked": 5983, "Ġsisters": 5984, "Ġshirts": 5985, "Ġscreaming": 5986, "Ġsides": 5987, "Ġrecognized": 5988, "Ġproperly": 5989, "Ġprepared": 5990, "Ġpracticing": 5991, "Ġprinter": 5992, "Ġpeered": 5993, "Ġpandas": 5994, "Ġpaj": 5995, "Ġoutfit": 5996, "Ġmatching": 5997, "Ġmane": 5998, "Ġkindly": 5999, "Ġgotten": 6000, "Ġcontain": 6001, "Ġconnect": 6002, "Ġchef": 6003, "Ġbumps": 6004, "Ġbrain": 6005, "Ġbeside": 6006, "Ġbelly": 6007, "Ġbunch": 6008, "Ġbones": 6009, "Ġalien": 6010, "ĠTia": 6011, "ĠPrince": 6012, "ĠPinky": 6013, "ĠKeep": 6014, "ĠHowever": 6015, "ĠFrank": 6016, "ĠFriend": 6017, "ĠDani": 6018, "ĠDid": 6019, "ĠCatty": 6020, "ĠBehind": 6021, "uture": 6022, "unnies": 6023, "umm": 6024, "rol": 6025, "plash": 6026, "ora": 6027, "ollow": 6028, "llen": 6029, "ishes": 6030, "innie": 6031, "fied": 6032, "elvet": 6033, "araway": 6034, "amas": 6035, "acob": 6036, "aster": 6037, "Ro": 6038, "Millie": 6039, "James": 6040, "Happy": 6041, "Follow": 6042, "Ex": 6043, "Days": 6044, "Dan": 6045, "Ġyounger": 6046, "Ġyesterday": 6047, "Ġtouching": 6048, "Ġtouches": 6049, "Ġteamwork": 6050, "Ġstaying": 6051, "Ġspending": 6052, "Ġscooped": 6053, "Ġsafer": 6054, "Ġropes": 6055, "Ġrocked": 6056, "Ġrealize": 6057, "Ġprettiest": 6058, "Ġpouring": 6059, "Ġpoems": 6060, "Ġnoon": 6061, "Ġmes": 6062, "Ġmerry": 6063, "Ġknights": 6064, "Ġhugging": 6065, "Ġhealed": 6066, "Ġhated": 6067, "Ġfuture": 6068, "Ġfaraway": 6069, "Ġearlier": 6070, "Ġdelivery": 6071, "Ġcontrol": 6072, "Ġclearing": 6073, "Ġchuckled": 6074, "Ġcautiously": 6075, "Ġbravery": 6076, "Ġbare": 6077, "Ġbunnies": 6078, "ĠSky": 6079, "ĠRemember": 6080, "ĠNick": 6081, "ĠMouse": 6082, "ĠLove": 6083, "ppers": 6084, "ler": 6085, "lay": 6086, "idges": 6087, "ibi": 6088, "guing": 6089, "fy": 6090, "cus": 6091, "athy": 6092, "att": 6093, "Sammy": 6094, "Rob": 6095, "Lola": 6096, "Hold": 6097, "Bad": 6098, "Ġyouth": 6099, "Ġtoss": 6100, "Ġswooped": 6101, "Ġsuffering": 6102, "Ġshaped": 6103, "Ġroars": 6104, "Ġrespons": 6105, "Ġreply": 6106, "Ġremembering": 6107, "Ġpumpkins": 6108, "Ġplanets": 6109, "Ġparties": 6110, "Ġpajamas": 6111, "Ġpadd": 6112, "Ġourselves": 6113, "Ġonwards": 6114, "Ġnovels": 6115, "Ġladybug": 6116, "Ġhelmets": 6117, "Ġexactly": 6118, "Ġesc": 6119, "Ġeff": 6120, "Ġdecision": 6121, "Ġcuts": 6122, "Ġcurtains": 6123, "Ġcrumb": 6124, "Ġcomfy": 6125, "Ġbridges": 6126, "Ġbiting": 6127, "Ġboo": 6128, "Ġarguing": 6129, "Ġanytime": 6130, "ĠVelvet": 6131, "ĠTree": 6132, "ĠSteve": 6133, "ĠSorry": 6134, "ĠPeanut": 6135, "ĠBlink": 6136, "âĢĿ.": 6137, "uest": 6138, "neath": 6139, "joyed": 6140, "itted": 6141, "irm": 6142, "ining": 6143, "ids": 6144, "essa": 6145, "brush": 6146, "avi": 6147, "allen": 6148, "Sandy": 6149, "Ru": 6150, "Nina": 6151, "Cl": 6152, "...\"": 6153, "Ġwires": 6154, "Ġwanting": 6155, "Ġtowels": 6156, "Ġtore": 6157, "Ġtickle": 6158, "Ġstrawberries": 6159, "Ġsting": 6160, "Ġsparkling": 6161, "Ġsnowballs": 6162, "Ġremote": 6163, "Ġrefuse": 6164, "Ġrefres": 6165, "Ġrainy": 6166, "Ġrising": 6167, "Ġpromises": 6168, "Ġpolishing": 6169, "Ġperformance": 6170, "Ġpeppers": 6171, "Ġpatiently": 6172, "Ġpaintings": 6173, "Ġoverjoyed": 6174, "Ġneighborhood": 6175, "Ġmisses": 6176, "Ġlogs": 6177, "Ġlied": 6178, "Ġleaning": 6179, "Ġhider": 6180, "Ġhawk": 6181, "Ġguessing": 6182, "Ġgenie": 6183, "Ġgained": 6184, "Ġguest": 6185, "Ġfairies": 6186, "Ġfirm": 6187, "Ġdeserve": 6188, "Ġdemanded": 6189, "Ġdarkness": 6190, "Ġcurly": 6191, "Ġcrumbs": 6192, "Ġcompleted": 6193, "Ġchirped": 6194, "Ġchallen": 6195, "Ġbowls": 6196, "Ġbeard": 6197, "Ġbumpy": 6198, "Ġapologize": 6199, "Ġagreement": 6200, "ĠZigzag": 6201, "ĠZiggy": 6202, "ĠUnfortunately": 6203, "ĠThose": 6204, "ĠTurtle": 6205, "ĠSlowly": 6206, "ĠPeggy": 6207, "ĠOur": 6208, "ĠMissy": 6209, "ĠJohnson": 6210, "ĠEmmy": 6211, "ĠCrusty": 6212, "ĠBeing": 6213, "ĠAm": 6214, "ĠAbby": 6215, "ĠOnce": 6216, "usted": 6217, "uced": 6218, "quence": 6219, "pril": 6220, "oys": 6221, "nes": 6222, "ners": 6223, "isdom": 6224, "iding": 6225, "hog": 6226, "esome": 6227, "eah": 6228, "Thanks": 6229, "Mrs": 6230, "Luna": 6231, "Chirpy": 6232, "Ġwhose": 6233, "Ġwhatever": 6234, "Ġweeks": 6235, "Ġwears": 6236, "Ġwakes": 6237, "Ġvisiting": 6238, "Ġtwice": 6239, "Ġtires": 6240, "Ġthrill": 6241, "Ġtugged": 6242, "Ġtangled": 6243, "Ġsurprising": 6244, "Ġsuperheroes": 6245, "Ġstroked": 6246, "Ġsnatched": 6247, "Ġslim": 6248, "Ġrolls": 6249, "Ġreluct": 6250, "Ġrainco": 6251, "Ġrac": 6252, "Ġpastels": 6253, "Ġpassing": 6254, "Ġparked": 6255, "Ġmer": 6256, "Ġlistens": 6257, "Ġgrey": 6258, "Ġgoodnight": 6259, "Ġfins": 6260, "Ġfascinated": 6261, "Ġexplorers": 6262, "Ġdent": 6263, "Ġcontinue": 6264, "Ġcomplaining": 6265, "Ġcobwebs": 6266, "Ġclaps": 6267, "Ġcamel": 6268, "Ġbrand": 6269, "Ġbakery": 6270, "Ġbadge": 6271, "Ġawesome": 6272, "Ġadult": 6273, "Ġaccom": 6274, "ĠZero": 6275, "ĠWink": 6276, "ĠTerry": 6277, "ĠStitch": 6278, "ĠPut": 6279, "ĠLizzie": 6280, "ĠLion": 6281, "ĠLena": 6282, "ĠKatie": 6283, "ĠKaren": 6284, "ĠHold": 6285, "ĠGoodbye": 6286, "ĠGlow": 6287, "ĠGet": 6288, "ĠBouncy": 6289, "ĠBy": 6290, "ĠBibi": 6291, "ĠAunt": 6292, "ĠX": 6293, "sequence": 6294, "sequences": 6295, "rious": 6296, "quirrel": 6297, "pite": 6298, "ordan": 6299, "nesday": 6300, "lict": 6301, "hee": 6302, "ednesday": 6303, "die": 6304, "ctions": 6305, "ayla": 6306, "artha": 6307, "anta": 6308, "Yeah": 6309, "Run": 6310, "Great": 6311, "Bunny": 6312, "Ġwipes": 6313, "Ġthreat": 6314, "Ġstyle": 6315, "Ġstartled": 6316, "Ġstern": 6317, "Ġsquares": 6318, "Ġsparkles": 6319, "Ġslimy": 6320, "Ġshoulders": 6321, "Ġshooting": 6322, "Ġshelves": 6323, "Ġseeker": 6324, "Ġscratches": 6325, "Ġsausages": 6326, "Ġrubs": 6327, "Ġreluctantly": 6328, "Ġquarreling": 6329, "Ġproject": 6330, "Ġprettier": 6331, "Ġpockets": 6332, "Ġpossible": 6333, "Ġplayroom": 6334, "Ġpens": 6335, "Ġpatted": 6336, "Ġpatience": 6337, "Ġpacking": 6338, "Ġpout": 6339, "Ġnations": 6340, "Ġmission": 6341, "Ġloops": 6342, "Ġleading": 6343, "Ġlanguages": 6344, "Ġkeeper": 6345, "Ġhopeful": 6346, "Ġforgiving": 6347, "Ġfiremen": 6348, "Ġeffort": 6349, "Ġeight": 6350, "Ġdived": 6351, "Ġdestination": 6352, "Ġdot": 6353, "Ġconflict": 6354, "Ġconsequences": 6355, "Ġcloses": 6356, "Ġcheering": 6357, "Ġcalmed": 6358, "Ġbuzzing": 6359, "Ġblinking": 6360, "Ġbecoming": 6361, "Ġawake": 6362, "Ġargued": 6363, "ĠWisdom": 6364, "ĠWednesday": 6365, "ĠRobbie": 6366, "ĠOt": 6367, "ĠMeg": 6368, "ĠJulie": 6369, "ĠJe": 6370, "ĠHenny": 6371, "ĠGranny": 6372, "ĠGreen": 6373, "ĠFire": 6374, "ĠChicky": 6375, "ĠBetsy": 6376, "ĠBoo": 6377, "ĠBarky": 6378, "ĠĠ": 6379, "wo": 6380, "uddles": 6381, "ubu": 6382, "uing": 6383, "tuce": 6384, "river": 6385, "rist": 6386, "rance": 6387, "oga": 6388, "no": 6389, "issue": 6390, "hello": 6391, "gers": 6392, "eed": 6393, "driver": 6394, "bric": 6395, "ads": 6396, "ados": 6397, "Watch": 6398, "Mike": 6399, "Luckily": 6400, "Johnny": 6401, "Henry": 6402, "Fr": 6403, "Ew": 6404, "Cat": 6405, "Bear": 6406, "Annie": 6407, "Ġwritten": 6408, "Ġweed": 6409, "Ġwatering": 6410, "Ġwasted": 6411, "Ġwow": 6412, "Ġthrilled": 6413, "Ġthorn": 6414, "Ġtalks": 6415, "Ġtissue": 6416, "Ġstripes": 6417, "Ġstain": 6418, "Ġsprang": 6419, "Ġshops": 6420, "Ġscrewdriver": 6421, "Ġsatis": 6422, "Ġsailboat": 6423, "Ġroads": 6424, "Ġroaring": 6425, "Ġraincoat": 6426, "Ġrainbows": 6427, "Ġradishes": 6428, "Ġpermitted": 6429, "Ġperformed": 6430, "Ġpebbles": 6431, "Ġobserved": 6432, "Ġnotes": 6433, "Ġmaster": 6434, "Ġloaded": 6435, "Ġlettuce": 6436, "Ġkittens": 6437, "Ġkicks": 6438, "Ġitem": 6439, "Ġimproved": 6440, "Ġhesitated": 6441, "Ġguy": 6442, "Ġgrowls": 6443, "Ġgrinned": 6444, "Ġgrabbing": 6445, "Ġgoals": 6446, "Ġgiggling": 6447, "Ġfreed": 6448, "Ġfabric": 6449, "Ġexha": 6450, "Ġescaped": 6451, "Ġdragons": 6452, "Ġdelivered": 6453, "Ġdipped": 6454, "Ġcreation": 6455, "Ġcough": 6456, "Ġbarely": 6457, "Ġavocados": 6458, "Ġaccompl": 6459, "ĠYoga": 6460, "ĠTwink": 6461, "ĠSuzie": 6462, "ĠSpring": 6463, "ĠMatt": 6464, "ĠLo": 6465, "ĠHope": 6466, "ĠGary": 6467, "ĠGabby": 6468, "ĠFriends": 6469, "ĠFlora": 6470, "ĠFor": 6471, "ĠDodo": 6472, "ĠCuddles": 6473, "ĠBye": 6474, "wh": 6475, "uggles": 6476, "uly": 6477, "parent": 6478, "now": 6479, "itches": 6480, "inty": 6481, "icha": 6482, "ichael": 6483, "fall": 6484, "enter": 6485, "aker": 6486, "adly": 6487, "acy": 6488, "Those": 6489, "Stay": 6490, "Pe": 6491, "Out": 6492, "Mar": 6493, "Buzz": 6494, ".'": 6495, "Ġworkers": 6496, "Ġweighs": 6497, "Ġvalued": 6498, "Ġvowed": 6499, "Ġvet": 6500, "Ġunderneath": 6501, "Ġuns": 6502, "Ġunf": 6503, "Ġtwinkle": 6504, "Ġtoward": 6505, "Ġtoaster": 6506, "Ġsurface": 6507, "Ġsnakes": 6508, "Ġslam": 6509, "Ġshrug": 6510, "Ġseasons": 6511, "Ġscra": 6512, "Ġscored": 6513, "Ġsway": 6514, "Ġrobb": 6515, "Ġresponsible": 6516, "Ġrescued": 6517, "Ġrefreshed": 6518, "Ġreason": 6519, "Ġpupils": 6520, "Ġpots": 6521, "Ġpointy": 6522, "Ġpeeking": 6523, "Ġpec": 6524, "Ġopinions": 6525, "Ġneighbors": 6526, "Ġnood": 6527, "Ġmesmer": 6528, "Ġmerma": 6529, "Ġmatters": 6530, "Ġmailboxes": 6531, "Ġlungs": 6532, "Ġlabels": 6533, "Ġinviting": 6534, "Ġhomework": 6535, "Ġhelpers": 6536, "Ġhedgehog": 6537, "Ġgears": 6538, "Ġforgetting": 6539, "Ġexhausted": 6540, "Ġexamined": 6541, "Ġentrance": 6542, "Ġelf": 6543, "Ġdrives": 6544, "Ġdolphins": 6545, "Ġdiscovering": 6546, "Ġdirections": 6547, "Ġdef": 6548, "Ġdarker": 6549, "Ġdam": 6550, "Ġcracked": 6551, "Ġcovers": 6552, "Ġcomm": 6553, "Ġchallenge": 6554, "Ġcartoons": 6555, "Ġbru": 6556, "Ġbeads": 6557, "Ġbackwards": 6558, "Ġapplauded": 6559, "ĠZippy": 6560, "ĠWoof": 6561, "ĠTessa": 6562, "ĠSquirrel": 6563, "ĠReg": 6564, "ĠJacob": 6565, "ĠEls": 6566, "ĠDara": 6567, "ĠChew": 6568, "ĠBingo": 6569, "Ġ1": 6570, "using": 6571, "uzz": 6572, "steps": 6573, "seek": 6574, "roat": 6575, "rink": 6576, "ppies": 6577, "paired": 6578, "otting": 6579, "opsy": 6580, "liver": 6581, "ivity": 6582, "iona": 6583, "iece": 6584, "ixture": 6585, "hi": 6586, "gles": 6587, "ept": 6588, "enty": 6589, "ently": 6590, "ctar": 6591, "chy": 6592, "cher": 6593, "but": 6594, "ai": 6595, "Whee": 6596, "Vroom": 6597, "True": 6598, "Tony": 6599, "Toby": 6600, "Spike": 6601, "Some": 6602, "Roar": 6603, "Polly": 6604, "Mouse": 6605, "Milly": 6606, "Le": 6607, "Grace": 6608, "Dolly": 6609, "Doggy": 6610, "Dog": 6611, "Ġwobbled": 6612, "Ġwaterfall": 6613, "Ġtruly": 6614, "Ġthoughts": 6615, "Ġthroat": 6616, "Ġtesting": 6617, "Ġtune": 6618, "Ġswept": 6619, "Ġswall": 6620, "Ġstomped": 6621, "Ġsteep": 6622, "Ġstumble": 6623, "Ġspits": 6624, "Ġsneezes": 6625, "Ġrepaired": 6626, "Ġraccoon": 6627, "Ġpurr": 6628, "Ġperched": 6629, "Ġpaths": 6630, "Ġpassen": 6631, "Ġopp": 6632, "Ġnoses": 6633, "Ġnoodles": 6634, "Ġneighbourhood": 6635, "Ġnectar": 6636, "Ġnapkins": 6637, "Ġmixture": 6638, "Ġlap": 6639, "Ġintroduced": 6640, "Ġhandful": 6641, "Ġgrowling": 6642, "Ġgrows": 6643, "Ġgrandparent": 6644, "Ġfootsteps": 6645, "Ġfirefighter": 6646, "Ġfilling": 6647, "Ġencouraging": 6648, "Ġdiscovery": 6649, "Ġcrackers": 6650, "Ġcause": 6651, "Ġburst": 6652, "Ġblocking": 6653, "Ġbecomes": 6654, "Ġbalanced": 6655, "Ġarrive": 6656, "Ġannoyed": 6657, "ĠWatch": 6658, "ĠTuna": 6659, "ĠSanta": 6660, "ĠRegret": 6661, "ĠRon": 6662, "ĠRich": 6663, "ĠLime": 6664, "ĠLaser": 6665, "ĠLarry": 6666, "ĠItchy": 6667, "ĠHug": 6668, "ĠHannah": 6669, "ĠDuck": 6670, "ĠBiggie": 6671, "ĠBubu": 6672, "ĠBeth": 6673, "ĠApril": 6674, "ĠQuack": 6675, "worm": 6676, "ummies": 6677, "rrr": 9626, "okey": 6679, "linky": 6680, "iri": 6681, "ippers": 6682, "iders": 6683, "dies": 6684, "bbled": 6685, "athan": 6686, "anda": 6687, "amie": 6688, "Tina": 6689, "Shh": 6690, "Quick": 6691, "Put": 6692, "Oops": 6693, "Joey": 6694, "Harry": 6695, "Fine": 6696, "Charlie": 6697, "Betty": 6698, "Benny": 6699, "Beep": 6700, "Ġzebras": 6701, "Ġwobb": 6702, "Ġvines": 6703, "Ġuses": 6704, "Ġunp": 6705, "Ġtwinkling": 6706, "Ġtriangles": 6707, "Ġtravelled": 6708, "Ġtickled": 6709, "Ġtempt": 6710, "Ġtables": 6711, "Ġties": 6712, "Ġsweets": 6713, "Ġsweaters": 6714, "Ġswallowed": 6715, "Ġstretching": 6716, "Ġstreets": 6717, "Ġstole": 6718, "Ġspeeding": 6719, "Ġspiders": 6720, "Ġsnowmen": 6721, "Ġslips": 6722, "Ġseconds": 6723, "Ġscrews": 6724, "Ġsalty": 6725, "Ġsense": 6726, "Ġrockets": 6727, "Ġreplaced": 6728, "Ġrecording": 6729, "Ġreaching": 6730, "Ġranger": 6731, "Ġpanc": 6732, "Ġpaintbrush": 6733, "Ġpaddled": 6734, "Ġmeasuring": 6735, "Ġmachines": 6736, "Ġmaker": 6737, "Ġloose": 6738, "Ġlosing": 6739, "Ġlower": 6740, "Ġknees": 6741, "Ġinclud": 6742, "Ġhoops": 6743, "Ġhonked": 6744, "Ġgems": 6745, "Ġgri": 6746, "Ġfuzzy": 6747, "Ġflavor": 6748, "Ġflas": 6749, "Ġflames": 6750, "Ġfirefighters": 6751, "Ġfilms": 6752, "Ġfiles": 6753, "Ġfarther": 6754, "Ġfailed": 6755, "Ġentire": 6756, "Ġdecorating": 6757, "Ġcuddly": 6758, "Ġcircus": 6759, "Ġchat": 6760, "Ġcharge": 6761, "Ġbuzzed": 6762, "Ġbraver": 6763, "Ġblooming": 6764, "Ġbloomed": 6765, "Ġbars": 6766, "Ġartist": 6767, "ĠYesterday": 6768, "ĠUp": 6769, "ĠTrust": 6770, "ĠThing": 6771, "ĠTara": 6772, "ĠSoap": 6773, "ĠSplash": 6774, "ĠRiri": 6775, "ĠRain": 6776, "ĠOther": 6777, "ĠMinnie": 6778, "ĠMay": 6779, "ĠMartha": 6780, "ĠMaggie": 6781, "ĠJeff": 6782, "ĠJordan": 6783, "ĠHolly": 6784, "ĠEli": 6785, "ĠDoctor": 6786, "ĠChrist": 6787, "ĠAnt": 6788, "vin": 6789, "urried": 6790, "umbling": 6791, "urious": 6792, "uded": 6793, "ths": 6794, "rian": 6795, "ophia": 6796, "onies": 6797, "oline": 6798, "ody": 6799, "nies": 6800, "lection": 6801, "ky": 6802, "indr": 6803, "hopper": 6804, "form": 6805, "ertain": 6806, "ering": 6807, "elia": 6808, "eal": 6809, "cuse": 6810, "cl": 6811, "bell": 6812, "ateri": 6813, "agull": 6814, "Unfortunately": 6815, "Silly": 6816, "Pat": 6817, "Our": 6818, "Mine": 6819, "Excuse": 6820, "Ellie": 6821, "Danny": 6822, "Bow": 6823, "Binky": 6824, "Ġyourselves": 6825, "Ġworries": 6826, "Ġwiping": 6827, "Ġwandering": 6828, "Ġunsure": 6829, "Ġunpacked": 6830, "Ġunderstands": 6831, "Ġtricky": 6832, "Ġtraded": 6833, "Ġteachers": 6834, "Ġtasks": 6835, "Ġtummies": 6836, "Ġtipped": 6837, "Ġtin": 6838, "Ġswirl": 6839, "Ġspong": 6840, "Ġsobbed": 6841, "Ġsniffs": 6842, "Ġsights": 6843, "Ġshrinking": 6844, "Ġseagull": 6845, "Ġscurried": 6846, "Ġraindr": 6847, "Ġprovided": 6848, "Ġprayer": 6849, "Ġpouted": 6850, "Ġpaddle": 6851, "Ġponies": 6852, "Ġobjects": 6853, "Ġmermaid": 6854, "Ġmagnets": 6855, "Ġmateri": 6856, "Ġloading": 6857, "Ġleast": 6858, "Ġjobs": 6859, "Ġjoked": 6860, "Ġitchy": 6861, "Ġindeed": 6862, "Ġincluding": 6863, "Ġincluded": 6864, "Ġimagining": 6865, "Ġimages": 6866, "Ġheav": 6867, "Ġhearing": 6868, "Ġgrasshopper": 6869, "Ġgrandparents": 6870, "Ġflipped": 6871, "Ġfits": 6872, "Ġfigured": 6873, "Ġfeeding": 6874, "Ġfeast": 6875, "Ġfaded": 6876, "Ġexplo": 6877, "Ġeagle": 6878, "Ġdrawers": 6879, "Ġdoctors": 6880, "Ġdirection": 6881, "Ġdentist": 6882, "Ġdelayed": 6883, "Ġdeal": 6884, "Ġcrowd": 6885, "Ġcounts": 6886, "Ġcopy": 6887, "Ġcheeks": 6888, "Ġchips": 6889, "Ġcamping": 6890, "Ġcoop": 6891, "Ġcenter": 6892, "Ġbudge": 6893, "Ġadding": 6894, "Ġaff": 6895, "ĠZipper": 6896, "ĠYouth": 6897, "ĠWelcome": 6898, "ĠWait": 6899, "ĠTy": 6900, "ĠSuzy": 6901, "ĠStay": 6902, "ĠSnuggles": 6903, "ĠSnap": 6904, "ĠShake": 6905, "ĠScale": 6906, "ĠSure": 6907, "ĠSadly": 6908, "ĠNina": 6909, "ĠNana": 6910, "ĠListen": 6911, "ĠLillie": 6912, "ĠJuliet": 6913, "ĠGrand": 6914, "ĠChloe": 6915, "ĠCoby": 6916, "ĠCathy": 6917, "ĠCable": 6918, "val": 6919, "usan": 6920, "retty": 6921, "retch": 6922, "rever": 6923, "ords": 6924, "onnie": 6925, "onna": 6926, "obody": 6927, "oke": 6928, "oed": 6929, "ms": 6930, "ledge": 6931, "lean": 6932, "line": 6933, "izon": 6934, "inny": 6935, "immer": 6936, "ilda": 6937, "ility": 6938, "ica": 6939, "essica": 6940, "erms": 6941, "enel": 6942, "enelope": 6943, "eese": 6944, "ces": 6945, "arlings": 6946, "arter": 6947, "anes": 6948, "amboo": 6949, "Very": 6950, "Time": 6951, "Snow": 6952, "Maria": 6953, "Mabel": 6954, "George": 6955, "Adam": 6956, "?\",": 6957, "...": 6958, "Ġwraps": 6959, "Ġwondering": 6960, "Ġwid": 6961, "Ġvanilla": 6962, "Ġvent": 6963, "Ġteased": 6964, "Ġsunflowers": 6965, "Ġstroll": 6966, "Ġstorekeeper": 6967, "Ġstopping": 6968, "Ġstatues": 6969, "Ġsqueal": 6970, "Ġsquishy": 6971, "Ġsponge": 6972, "Ġspills": 6973, "Ġsomebody": 6974, "Ġsolut": 6975, "Ġsmarter": 6976, "Ġslowed": 6977, "Ġsitu": 6978, "Ġsharks": 6979, "Ġseven": 6980, "Ġsale": 6981, "Ġrewarded": 6982, "Ġrepeating": 6983, "Ġreminder": 6984, "Ġrewards": 6985, "Ġrumble": 6986, "Ġrotting": 6987, "Ġrisk": 6988, "Ġquacked": 6989, "Ġpretends": 6990, "Ġpops": 6991, "Ġplanning": 6992, "Ġplenty": 6993, "Ġpennies": 6994, "Ġpecked": 6995, "Ġpancakes": 6996, "Ġowns": 6997, "Ġowners": 6998, "Ġnightmares": 6999, "Ġneedles": 7000, "Ġnecklaces": 7001, "Ġni": 7002, "Ġmugs": 7003, "Ġmosquitoes": 7004, "Ġmesmerized": 7005, "Ġmeowing": 7006, "Ġmarker": 7007, "Ġmarked": 7008, "Ġknowledge": 7009, "Ġknocks": 7010, "Ġkites": 7011, "Ġinterested": 7012, "Ġinstrum": 7013, "Ġincreased": 7014, "Ġhorizon": 7015, "Ġhallway": 7016, "Ġgrip": 7017, "Ġgreet": 7018, "Ġgrassy": 7019, "Ġgonna": 7020, "Ġgerms": 7021, "Ġgeese": 7022, "Ġforgets": 7023, "Ġfloats": 7024, "Ġflavors": 7025, "Ġexpress": 7026, "Ġech": 7027, "Ġearn": 7028, "Ġdripping": 7029, "Ġdrift": 7030, "Ġdrawn": 7031, "Ġdarlings": 7032, "Ġcrossing": 7033, "Ġcreating": 7034, "Ġcocoon": 7035, "Ġclowns": 7036, "Ġchoices": 7037, "Ġchirping": 7038, "Ġchanging": 7039, "Ġcaused": 7040, "Ġcott": 7041, "Ġbuses": 7042, "Ġbodies": 7043, "Ġbaths": 7044, "Ġbandages": 7045, "Ġbamboo": 7046, "Ġamong": 7047, "Ġaccomplish": 7048, "Ġast": 7049, "ĠWant": 7050, "ĠSparky": 7051, "ĠRudy": 7052, "ĠRobo": 7053, "ĠRub": 7054, "ĠQuacky": 7055, "ĠPaulie": 7056, "ĠOliver": 7057, "ĠMegan": 7058, "ĠMila": 7059, "ĠMel": 7060, "ĠKen": 7061, "ĠJoanna": 7062, "ĠJump": 7063, "ĠJan": 7064, "ĠHop": 7065, "ĠFro": 7066, "ĠFishy": 7067, "ĠEn": 7068, "ĠDare": 7069, "ĠChewy": 7070, "ĠChirp": 7071, "ĠBrownie": 7072, "ĠBluey": 7073, "ĠBerry": 7074, "ĠBad": 7075, "ĠAbb": 7076, "weed": 7077, "vers": 7078, "uppy": 7079, "uel": 7080, "though": 7081, "sses": 7082, "reverse": 7083, "print": 7084, "ordinary": 7085, "ossible": 7086, "itude": 7087, "imon": 7088, "iar": 7089, "fus": 7090, "fl": 7091, "esture": 7092, "cope": 7093, "bbly": 7094, "andra": 7095, "ans": 7096, "auliflower": 7097, "aa": 7098, "Which": 7099, "Sunny": 7100, "Ruby": 7101, "Pete": 7102, "Liz": 7103, "Listen": 7104, "Keep": 7105, "Jerry": 7106, "Hoppy": 7107, "Hannah": 7108, "Freddy": 7109, "Emily": 7110, "Davey": 7111, "Dani": 7112, "Buzzy": 7113, "By": 7114, "Bill": 7115, "Baby": 7116, "Afterwards": 7117, "?'": 7118, "Ġzipping": 7119, "Ġwidened": 7120, "Ġwept": 7121, "Ġwarnings": 7122, "Ġusually": 7123, "Ġuntied": 7124, "Ġuniforms": 7125, "Ġtodd": 7126, "Ġtasting": 7127, "Ġsweetest": 7128, "Ġsuffered": 7129, "Ġstudents": 7130, "Ġsternly": 7131, "Ġstarfish": 7132, "Ġspeaking": 7133, "Ġsofter": 7134, "Ġsniffing": 7135, "Ġslower": 7136, "Ġslammed": 7137, "Ġsinger": 7138, "Ġsheets": 7139, "Ġsewing": 7140, "Ġseaweed": 7141, "Ġscratching": 7142, "Ġscooters": 7143, "Ġrestored": 7144, "Ġrescuing": 7145, "Ġrelaxing": 7146, "Ġproviding": 7147, "Ġplayers": 7148, "Ġpipes": 7149, "Ġpigeons": 7150, "Ġpenguins": 7151, "Ġpeeled": 7152, "Ġpedaled": 7153, "Ġpeck": 7154, "Ġnuzz": 7155, "Ġmeals": 7156, "Ġmanners": 7157, "Ġlighter": 7158, "Ġlending": 7159, "Ġlimes": 7160, "Ġimpossible": 7161, "Ġguests": 7162, "Ġgroceries": 7163, "Ġglasses": 7164, "Ġgesture": 7165, "Ġfrowning": 7166, "Ġforks": 7167, "Ġfigures": 7168, "Ġends": 7169, "Ġechoed": 7170, "Ġdigs": 7171, "Ġdances": 7172, "Ġdar": 7173, "Ġcreativity": 7174, "Ġcovering": 7175, "Ġconfident": 7176, "Ġcompetition": 7177, "Ġcomforting": 7178, "Ġcausing": 7179, "Ġcash": 7180, "Ġbrushed": 7181, "Ġblown": 7182, "Ġbehavi": 7183, "Ġbasement": 7184, "Ġbanged": 7185, "Ġbackpacks": 7186, "Ġanger": 7187, "Ġage": 7188, "Ġadults": 7189, "Ġactiv": 7190, "Ġachieved": 7191, "ĠWind": 7192, "ĠTwo": 7193, "ĠSpinny": 7194, "ĠSmokey": 7195, "ĠSusan": 7196, "ĠSlinky": 7197, "ĠSleep": 7198, "ĠSari": 7199, "ĠPeep": 7200, "ĠPuffy": 7201, "ĠPretty": 7202, "ĠPlay": 7203, "ĠPer": 7204, "ĠMissile": 7205, "ĠMon": 7206, "ĠMo": 7207, "ĠMichael": 7208, "ĠMabel": 7209, "ĠKids": 7210, "ĠJones": 7211, "ĠFiona": 7212, "ĠDaniel": 7213, "ĠCurious": 7214, "ĠCro": 7215, "ĠCra": 7216, "ĠCindy": 7217, "ĠCara": 7218, "ĠAlong": 7219, "ĠAli": 7220, "ĠĊĠ": 7221, "yes": 7222, "uess": 7223, "sel": 7224, "romise": 7225, "rnie": 7226, "ragon": 7227, "orth": 7228, "ments": 7229, "munk": 7230, "mo": 7231, "mas": 7232, "lings": 7233, "len": 7234, "ipmunk": 7235, "immering": 7236, "ighting": 7237, "igger": 7238, "ibbit": 7239, "flakes": 7240, "freeze": 7241, "eremy": 7242, "cited": 7243, "aura": 7244, "atur": 7245, "asha": 7246, "aps": 7247, "airy": 7248, "Zip": 7249, "Wake": 7250, "VD": 7251, "Take": 7252, "Sophie": 7253, "Sc": 7254, "Lilly": 7255, "Jump": 7256, "Jul": 7257, "Car": 7258, "Alright": 7259, "',": 7260, "!âĢĿ.": 7261, "Ġwounds": 7262, "Ġworn": 7263, "Ġwobbly": 7264, "Ġwobble": 7265, "Ġwolves": 7266, "Ġwindy": 7267, "Ġwasting": 7268, "Ġuntie": 7269, "Ġtrays": 7270, "Ġtrigger": 7271, "Ġtalented": 7272, "Ġtablet": 7273, "Ġtapped": 7274, "Ġtilt": 7275, "Ġstudent": 7276, "Ġstolen": 7277, "Ġstung": 7278, "Ġspikes": 7279, "Ġspells": 7280, "Ġsource": 7281, "Ġsolution": 7282, "Ġsnowflakes": 7283, "Ġslipping": 7284, "Ġshallow": 7285, "Ġsewed": 7286, "Ġserving": 7287, "Ġseller": 7288, "Ġsecure": 7289, "Ġscores": 7290, "Ġscolds": 7291, "Ġsatisfied": 7292, "Ġrecorder": 7293, "Ġraindrops": 7294, "Ġrays": 7295, "Ġprinting": 7296, "Ġpleasure": 7297, "Ġperforming": 7298, "Ġpays": 7299, "Ġpaying": 7300, "Ġpassengers": 7301, "Ġnests": 7302, "Ġmushrooms": 7303, "Ġmailed": 7304, "Ġlowered": 7305, "Ġleap": 7306, "Ġkings": 7307, "Ġintr": 7308, "Ġinvent": 7309, "Ġhides": 7310, "Ġhanding": 7311, "Ġhus": 7312, "Ġguys": 7313, "Ġfroze": 7314, "Ġfreedom": 7315, "Ġformed": 7316, "Ġfires": 7317, "Ġfights": 7318, "Ġfever": 7319, "Ġfain": 7320, "Ġextraordinary": 7321, "Ġeverybody": 7322, "Ġencouragement": 7323, "Ġdrums": 7324, "Ġdragged": 7325, "Ġdollars": 7326, "Ġdod": 7327, "Ġdetermination": 7328, "Ġdestroying": 7329, "Ġdesigns": 7330, "Ġdip": 7331, "Ġcrashing": 7332, "Ġcountryside": 7333, "Ġcons": 7334, "Ġcombed": 7335, "Ġcolored": 7336, "Ġchipmunk": 7337, "Ġcoug": 7338, "Ġcages": 7339, "Ġburying": 7340, "Ġburrow": 7341, "Ġbrightest": 7342, "Ġbracelets": 7343, "Ġbeloved": 7344, "Ġbeginning": 7345, "Ġbackward": 7346, "Ġavoid": 7347, "Ġaddress": 7348, "Ġaimed": 7349, "ĠWilly": 7350, "ĠTwinkle": 7351, "ĠTake": 7352, "ĠStacy": 7353, "ĠPoor": 7354, "ĠPerry": 7355, "ĠNelly": 7356, "ĠMan": 7357, "ĠLollie": 7358, "ĠHead": 7359, "ĠFlopsy": 7360, "ĠErnie": 7361, "ĠEllen": 7362, "ĠDot": 7363, "ĠDVD": 7364, "ĠCopper": 7365, "ĠChristmas": 7366, "ĠCauliflower": 7367, "ĠBirdie": 7368, "ĠBert": 7369, "ĠYes": 7370, "âĢĶ": 7371, "zoom": 7372, "zing": 7373, "zes": 7374, "you": 7375, "yond": 7376, "vy": 7377, "ushing": 7378, "unity": 7379, "tle": 7380, "sty": 7381, "saw": 7382, "rie": 7383, "quet": 7384, "prints": 7385, "ounce": 7386, "ouquet": 7387, "omb": 7388, "omas": 7389, "over": 7390, "mbers": 7391, "kelly": 7392, "ixy": 7393, "issa": 7394, "igued": 7395, "ido": 7396, "idi": 7397, "ici": 7398, "emon": 7399, "elieve": 7400, "een": 7401, "eath": 7402, "earing": 7403, "couraged": 7404, "crow": 7405, "cc": 7406, "ashed": 7407, "alph": 7408, "ao": 7409, "Uncle": 7410, "Two": 7411, "Ribbit": 7412, "Near": 7413, "Maggie": 7414, "Like": 7415, "For": 7416, "Daniel": 7417, "Dear": 7418, "Bee": 7419, "Ġzippers": 7420, "Ġyelp": 7421, "Ġwilling": 7422, "Ġwider": 7423, "Ġvillain": 7424, "Ġventured": 7425, "Ġusual": 7426, "Ġtwisting": 7427, "Ġtunnels": 7428, "Ġtrusting": 7429, "Ġtickles": 7430, "Ġtapping": 7431, "Ġtar": 7432, "Ġswimsuit": 7433, "Ġswords": 7434, "Ġswallow": 7435, "Ġsurroundings": 7436, "Ġsurfed": 7437, "Ġsupplies": 7438, "Ġstretches": 7439, "Ġstem": 7440, "Ġsquealed": 7441, "Ġsqueak": 7442, "Ġspilling": 7443, "Ġspears": 7444, "Ġslapping": 7445, "Ġshoo": 7446, "Ġsending": 7447, "Ġscraped": 7448, "Ġscattering": 7449, "Ġscares": 7450, "Ġscarecrow": 7451, "Ġscen": 7452, "Ġsails": 7453, "Ġsailors": 7454, "Ġsy": 7455, "Ġsib": 7456, "Ġrows": 7457, "Ġrobber": 7458, "Ġrhythms": 7459, "Ġreflection": 7460, "Ġrecip": 7461, "Ġrains": 7462, "Ġrusty": 7463, "Ġpuzzled": 7464, "Ġprove": 7465, "Ġpours": 7466, "Ġposter": 7467, "Ġoutdo": 7468, "Ġnapped": 7469, "Ġmodels": 7470, "Ġmeows": 7471, "Ġmembers": 7472, "Ġmasks": 7473, "Ġlifting": 7474, "Ġleads": 7475, "Ġlaying": 7476, "Ġknots": 7477, "Ġjuggle": 7478, "Ġinj": 7479, "Ġhumming": 7480, "Ġhangers": 7481, "Ġfrowns": 7482, "Ġflaps": 7483, "Ġflapping": 7484, "Ġfirmly": 7485, "Ġfarthest": 7486, "Ġfact": 7487, "Ġexpression": 7488, "Ġexploded": 7489, "Ġexplains": 7490, "Ġenjoyable": 7491, "Ġduckling": 7492, "Ġdriveway": 7493, "Ġdisturbing": 7494, "Ġdespite": 7495, "Ġdaring": 7496, "Ġcrowns": 7497, "Ġconnected": 7498, "Ġcompletely": 7499, "Ġcomets": 7500, "Ġcloudy": 7501, "Ġcleared": 7502, "Ġclick": 7503, "Ġchefs": 7504, "Ġcheers": 7505, "Ġchop": 7506, "Ġchoo": 7507, "Ġcelebrating": 7508, "Ġcashier": 7509, "Ġcarts": 7510, "Ġcertain": 7511, "Ġbusiness": 7512, "Ġbruises": 7513, "Ġbeneath": 7514, "Ġbehaving": 7515, "Ġbeaver": 7516, "Ġbeyond": 7517, "Ġbouquet": 7518, "Ġbomb": 7519, "Ġaside": 7520, "Ġangels": 7521, "Ġafterwards": 7522, "Ġactivities": 7523, "Ġaction": 7524, "ĠZee": 7525, "ĠWithout": 7526, "ĠToot": 7527, "ĠTip": 7528, "ĠStretch": 7529, "ĠStep": 7530, "ĠStart": 7531, "ĠSnowman": 7532, "ĠSkelly": 7533, "ĠSimon": 7534, "ĠPuppy": 7535, "ĠPup": 7536, "ĠPenelope": 7537, "ĠNothing": 7538, "ĠNobody": 7539, "ĠNe": 7540, "ĠMixy": 7541, "ĠLi": 7542, "ĠJessica": 7543, "ĠJamie": 7544, "ĠIzzy": 7545, "ĠHelping": 7546, "ĠHoney": 7547, "ĠGrape": 7548, "ĠGray": 7549, "ĠGoose": 7550, "ĠCla": 7551, "ĠConnie": 7552, "ĠBury": 7553, "Ġouch": 7554, "Ġicing": 7555, "âĢ¦": 7556, "yd": 7557, "wra": 7558, "value": 7559, "vil": 7560, "unching": 7561, "ueen": 7562, "toed": 7563, "tock": 7564, "rona": 7565, "ronaut": 7566, "ris": 7567, "quid": 7568, "orter": 7569, "orre": 7570, "ntil": 7571, "lephant": 7572, "kend": 7573, "iversity": 7574, "itcase": 7575, "illed": 7576, "ilities": 7577, "icip": 7578, "hole": 7579, "hil": 7580, "fia": 7581, "epi": 7582, "emies": 7583, "evin": 7584, "ekend": 7585, "ders": 7586, "cover": 7587, "bird": 7588, "band": 7589, "atform": 7590, "ammy": 7591, "akayla": 7592, "addy": 7593, "addie": 7594, "aj": 7595, "Under": 7596, "Trust": 7597, "Teddy": 7598, "Shrink": 7599, "Rabbit": 7600, "Queen": 7601, "Play": 7602, "Pip": 7603, "Olive": 7604, "Nice": 7605, "Moo": 7606, "May": 7607, "Leave": 7608, "Lena": 7609, "However": 7610, "Guess": 7611, "Chloe": 7612, "Big": 7613, "ĠâĢĺ": 7614, "Ġyells": 7615, "Ġwrapping": 7616, "Ġwhispers": 7617, "Ġwhined": 7618, "Ġwhimp": 7619, "Ġweekend": 7620, "Ġtubes": 7621, "Ġtreated": 7622, "Ġtractor": 7623, "Ġtoddler": 7624, "Ġtilted": 7625, "Ġtidied": 7626, "Ġthreads": 7627, "Ġthorns": 7628, "Ġtarget": 7629, "Ġty": 7630, "Ġswans": 7631, "Ġsurfing": 7632, "Ġsuitcase": 7633, "Ġstored": 7634, "Ġstool": 7635, "Ġstitches": 7636, "Ġsqueaked": 7637, "Ġspreading": 7638, "Ġsparks": 7639, "Ġsnuggle": 7640, "Ġsituation": 7641, "Ġsiblings": 7642, "Ġshortcut": 7643, "Ġshines": 7644, "Ġshares": 7645, "Ġshorter": 7646, "Ġshady": 7647, "Ġsets": 7648, "Ġseparated": 7649, "Ġscoops": 7650, "Ġscarves": 7651, "Ġsan": 7652, "Ġsilk": 7653, "Ġroses": 7654, "Ġrivers": 7655, "Ġreversed": 7656, "Ġreminding": 7657, "Ġreass": 7658, "Ġrushing": 7659, "Ġrout": 7660, "Ġqueens": 7661, "Ġpurpose": 7662, "Ġprincesses": 7663, "Ġpresses": 7664, "Ġplatform": 7665, "Ġplain": 7666, "Ġpits": 7667, "Ġodd": 7668, "Ġnuzzled": 7669, "Ġnine": 7670, "Ġmonths": 7671, "Ġmints": 7672, "Ġmagician": 7673, "Ġmir": 7674, "Ġlongest": 7675, "Ġloses": 7676, "Ġlocks": 7677, "Ġliquid": 7678, "Ġkinder": 7679, "Ġkeyhole": 7680, "Ġkit": 7681, "Ġjoins": 7682, "Ġitems": 7683, "Ġintrigued": 7684, "Ġhusband": 7685, "Ġhunters": 7686, "Ġhumans": 7687, "Ġheading": 7688, "Ġhaircuts": 7689, "Ġgul": 7690, "Ġforehead": 7691, "Ġfootprints": 7692, "Ġfirefly": 7693, "Ġfinal": 7694, "Ġfills": 7695, "Ġfaint": 7696, "Ġenemies": 7697, "Ġearthworm": 7698, "Ġevil": 7699, "Ġease": 7700, "Ġdrown": 7701, "Ġdoorway": 7702, "Ġdock": 7703, "Ġdinosaurs": 7704, "Ġdeserved": 7705, "Ġdemanding": 7706, "Ġdarling": 7707, "Ġdamage": 7708, "Ġdizz": 7709, "Ġdet": 7710, "Ġda": 7711, "Ġcubes": 7712, "Ġcottage": 7713, "Ġcops": 7714, "Ġcomplained": 7715, "Ġcollap": 7716, "Ġclosing": 7717, "Ġclues": 7718, "Ġcelebration": 7719, "Ġcapes": 7720, "Ġcous": 7721, "Ġcorre": 7722, "Ġbows": 7723, "Ġbothered": 7724, "Ġbenches": 7725, "Ġbathing": 7726, "Ġastronaut": 7727, "Ġaren": 7728, "Ġamount": 7729, "ĠTrucky": 7730, "ĠThanks": 7731, "ĠToys": 7732, "ĠTory": 7733, "ĠTaking": 7734, "ĠSweet": 7735, "ĠSour": 7736, "ĠSophia": 7737, "ĠSandra": 7738, "ĠRicky": 7739, "ĠRia": 7740, "ĠPop": 7741, "ĠPl": 7742, "ĠPepi": 7743, "ĠOnly": 7744, "ĠNut": 7745, "ĠNice": 7746, "ĠNear": 7747, "ĠNap": 7748, "ĠMop": 7749, "ĠMoo": 7750, "ĠMindy": 7751, "ĠLouise": 7752, "ĠLeah": 7753, "ĠLuckily": 7754, "ĠKind": 7755, "ĠJonathan": 7756, "ĠJessie": 7757, "ĠIsn": 7758, "ĠHank": 7759, "ĠFrosty": 7760, "ĠFlash": 7761, "ĠFly": 7762, "ĠFido": 7763, "ĠEnjoy": 7764, "ĠEx": 7765, "ĠDoug": 7766, "ĠDay": 7767, "ĠCocoa": 7768, "ĠChess": 7769, "ĠCari": 7770, "ĠButter": 7771, "ĠBea": 7772, "ĠBrian": 7773, "ĠBess": 7774, "ĠBao": 7775, "ĠBall": 7776, "ĠAsh": 7777, "ĠAchoo": 7778, "Ġ10": 7779, "ĠQueen": 7780, "ĠOkay": 7781, "Ġ2": 7782, "wise": 7783, "veral": 7784, "vroom": 7785, "unes": 7786, "udience": 7787, "storm": 7788, "sen": 7789, "roken": 7790, "reg": 7791, "ran": 7792, "paw": 7793, "othy": 7794, "ooly": 7795, "mony": 7796, "mine": 7797, "ley": 7798, "lied": 7799, "its": 7800, "itely": 7801, "isions": 7802, "isies": 7803, "iolet": 7804, "inted": 7805, "iney": 7806, "iley": 7807, "iliar": 7808, "igning": 7809, "ierce": 7810, "ienced": 7811, "icipation": 7812, "ibo": 7813, "gain": 7814, "espite": 7815, "ended": 7816, "ecord": 7817, "eve": 7818, "eow": 7819, "meow": 7820, "cused": 7821, "cat": 7822, "bu": 7823, "bs": 7824, "broken": 7825, "bit": 7826, "awpaw": 7827, "aty": 7828, "ansel": 7829, "aned": 7830, "aming": 7831, "aley": 7832, "aly": 7833, "ails": 7834, "agic": 7835, "ager": 7836, "ades": 7837, "Zoomy": 7838, "Tree": 7839, "Ted": 7840, "Su": 7841, "Ricky": 7842, "Papa": 7843, "Milo": 7844, "Lizzy": 7845, "Kiki": 7846, "Katie": 7847, "Kate": 7848, "Jazz": 7849, "Hurry": 7850, "Goodnight": 7851, "Gr": 7852, "Finny": 7853, "Finn": 7854, "Freeze": 7855, "Fl": 7856, "Even": 7857, "Danger": 7858, "Choo": 7859, "Cindy": 7860, "Carl": 7861, "Betsy": 7862, "Bounce": 7863, "Ant": 7864, "Alex": 7865, "Abigail": 7866, "AA": 7867, "'.\"": 7868, "Ġzooms": 7869, "Ġyielded": 7870, "Ġwrit": 7871, "Ġwrink": 7872, "Ġworrying": 7873, "Ġwhistles": 7874, "Ġweapons": 7875, "Ġwax": 7876, "Ġwaking": 7877, "Ġunwra": 7878, "Ġtrusts": 7879, "Ġtravels": 7880, "Ġtowns": 7881, "Ġthroughout": 7882, "Ġthrown": 7883, "Ġthud": 7884, "Ġtested": 7885, "Ġterrified": 7886, "Ġteaspoons": 7887, "Ġteams": 7888, "Ġtuck": 7889, "Ġsymbols": 7890, "Ġsupporting": 7891, "Ġsupported": 7892, "Ġsupplied": 7893, "Ġsnaps": 7894, "Ġslaps": 7895, "Ġskinny": 7896, "Ġsilent": 7897, "Ġseveral": 7898, "Ġsandy": 7899, "Ġsank": 7900, "Ġrunner": 7901, "Ġruining": 7902, "Ġrobots": 7903, "Ġrelief": 7904, "Ġraces": 7905, "Ġrust": 7906, "Ġroo": 7907, "Ġramp": 7908, "Ġquacks": 7909, "Ġpurrs": 7910, "Ġpunishment": 7911, "Ġpoppies": 7912, "Ġplot": 7913, "Ġphones": 7914, "Ġpecks": 7915, "Ġpalms": 7916, "Ġpail": 7917, "Ġpuff": 7918, "Ġpouch": 7919, "Ġoysters": 7920, "Ġovercome": 7921, "Ġoutdoors": 7922, "Ġopport": 7923, "Ġnervously": 7924, "Ġneighbours": 7925, "Ġneare": 7926, "Ġmoat": 7927, "Ġminded": 7928, "Ġmessages": 7929, "Ġmarkers": 7930, "Ġmagnif": 7931, "Ġlizards": 7932, "Ġlifts": 7933, "Ġlessons": 7934, "Ġlaces": 7935, "Ġlim": 7936, "Ġknocking": 7937, "Ġjoining": 7938, "Ġinvitations": 7939, "Ġinter": 7940, "Ġhowever": 7941, "Ġhiss": 7942, "Ġheavier": 7943, "Ġguards": 7944, "Ġgreeted": 7945, "Ġgiggles": 7946, "Ġgardener": 7947, "Ġgross": 7948, "Ġgle": 7949, "Ġfocused": 7950, "Ġfluttered": 7951, "Ġflip": 7952, "Ġexperienced": 7953, "Ġexpecting": 7954, "Ġexcept": 7955, "Ġeveryday": 7956, "Ġelbow": 7957, "Ġedges": 7958, "Ġearned": 7959, "Ġdropping": 7960, "Ġdripped": 7961, "Ġdresser": 7962, "Ġdreamt": 7963, "Ġdiscouraged": 7964, "Ġdesigned": 7965, "Ġdecisions": 7966, "Ġdaisies": 7967, "Ġdie": 7968, "Ġcutter": 7969, "Ġcreams": 7970, "Ġcooper": 7971, "Ġconsider": 7972, "Ġcolder": 7973, "Ġclue": 7974, "Ġchews": 7975, "Ġbothering": 7976, "Ġbond": 7977, "Ġblocked": 7978, "Ġbeeped": 7979, "Ġbeaks": 7980, "Ġbats": 7981, "Ġbacked": 7982, "Ġbitten": 7983, "Ġawoke": 7984, "Ġarrows": 7985, "Ġanticipation": 7986, "Ġannoying": 7987, "Ġaccomplishment": 7988, "Ġaudience": 7989, "ĠWilla": 7990, "ĠWooly": 7991, "ĠWinky": 7992, "ĠUntil": 7993, "ĠThermometer": 7994, "ĠThomas": 7995, "ĠTabby": 7996, "ĠSteak": 7997, "ĠStore": 7998, "ĠSparkle": 7999, "ĠSocky": 8000, "ĠShape": 8001, "ĠShadow": 8002, "ĠSay": 8003, "ĠRufus": 8004, "ĠRecord": 8005, "ĠPrincess": 8006, "ĠPutter": 8007, "ĠPiggy": 8008, "ĠPass": 8009, "ĠPaddy": 8010, "ĠNutty": 8011, "ĠNapkin": 8012, "ĠNever": 8013, "ĠMei": 8014, "ĠMeena": 8015, "ĠMoppy": 8016, "ĠMail": 8017, "ĠJosh": 8018, "ĠJoke": 8019, "ĠJoy": 8020, "ĠIm": 8021, "ĠHilda": 8022, "ĠHi": 8023, "ĠGrandad": 8024, "ĠGina": 8025, "ĠFluff": 8026, "ĠFlap": 8027, "ĠFighting": 8028, "ĠElsie": 8029, "ĠElsa": 8030, "ĠElmo": 8031, "ĠClaire": 8032, "ĠClay": 8033, "ĠClean": 8034, "ĠCell": 8035, "ĠBibo": 8036, "ĠAmir": 8037, "ĠAva": 8038, "Ġ5": 8039, "years": 8040, "welcome": 8041, "wis": 8042, "usage": 8043, "urrender": 8044, "urity": 8045, "ulpt": 8046, "uzzy": 8047, "two": 8048, "sm": 8049, "rat": 8050, "ratul": 8051, "ppet": 8052, "pit": 8053, "ping": 8054, "piece": 8055, "oyal": 8056, "ouple": 8057, "ouched": 8058, "osite": 8059, "oring": 8060, "ongratul": 8061, "oger": 8062, "oor": 8063, "match": 8064, "lescope": 8065, "lt": 8066, "kip": 8067, "izzes": 8068, "ivi": 8069, "ittered": 8070, "ition": 8071, "ingly": 8072, "iles": 8073, "iloo": 8074, "icular": 8075, "iens": 8076, "hive": 8077, "flowers": 8078, "ending": 8079, "elle": 8080, "elix": 8081, "eet": 8082, "cers": 8083, "cad": 8084, "build": 8085, "bel": 8086, "azor": 8087, "attered": 8088, "atre": 8089, "ata": 8090, "asty": 8091, "assie": 8092, "armer": 8093, "antha": 8094, "ancy": 8095, "ampoline": 8096, "ample": 8097, "adish": 8098, "acie": 8099, "ausage": 8100, "Tomorrow": 8101, "Tw": 8102, "Tilly": 8103, "Steve": 8104, "Someone": 8105, "Should": 8106, "Sweet": 8107, "Robbie": 8108, "Pandy": 8109, "Mon": 8110, "Minnie": 8111, "Lia": 8112, "Julie": 8113, "Get": 8114, "Frank": 8115, "Fire": 8116, "Eat": 8117, "Che": 8118, "Behind": 8119, "Bun": 8120, "Boys": 8121, "Bop": 8122, "?!\"": 8123, ",'": 8124, "ĠâĢĶ": 8125, "Ġyum": 8126, "Ġwildflowers": 8127, "Ġweeds": 8128, "Ġweaker": 8129, "Ġwaters": 8130, "Ġwaiter": 8131, "Ġunpacking": 8132, "Ġunfortunately": 8133, "Ġtwirling": 8134, "Ġtweet": 8135, "Ġtrembled": 8136, "Ġtreehouse": 8137, "Ġtravelling": 8138, "Ġtrampoline": 8139, "Ġtiptoed": 8140, "Ġtighter": 8141, "Ġtheatre": 8142, "Ġtemper": 8143, "Ġtelescope": 8144, "Ġswap": 8145, "Ġsurfboard": 8146, "Ġstroke": 8147, "Ġstreamers": 8148, "Ġstands": 8149, "Ġsqueezing": 8150, "Ġsprinkle": 8151, "Ġspoonful": 8152, "Ġspins": 8153, "Ġsnowy": 8154, "Ġsmelling": 8155, "Ġsled": 8156, "Ġskirts": 8157, "Ġsirens": 8158, "Ġsigned": 8159, "Ġshrugs": 8160, "Ġshrank": 8161, "Ġshall": 8162, "Ġseated": 8163, "Ġseas": 8164, "Ġseals": 8165, "Ġsculpt": 8166, "Ġscre": 8167, "Ġscamp": 8168, "Ġrooster": 8169, "Ġrewarding": 8170, "Ġrespond": 8171, "Ġregretted": 8172, "Ġrebuild": 8173, "Ġrather": 8174, "Ġpuppies": 8175, "Ġpuppet": 8176, "Ġprophet": 8177, "Ġprod": 8178, "Ġprevented": 8179, "Ġpressing": 8180, "Ġpreparing": 8181, "Ġpraying": 8182, "Ġpowders": 8183, "Ġpopping": 8184, "Ġpicnics": 8185, "Ġpedaling": 8186, "Ġpassports": 8187, "Ġparticular": 8188, "Ġpans": 8189, "Ġopposite": 8190, "Ġonline": 8191, "Ġneatly": 8192, "Ġnecks": 8193, "Ġnasty": 8194, "Ġmoonlight": 8195, "Ġmirac": 8196, "Ġminds": 8197, "Ġmaterials": 8198, "Ġmaps": 8199, "Ġmanager": 8200, "Ġmagazines": 8201, "Ġladybird": 8202, "Ġlilies": 8203, "Ġjets": 8204, "Ġinvites": 8205, "Ġinsp": 8206, "Ġhonks": 8207, "Ġhonking": 8208, "Ġhisses": 8209, "Ġhesitant": 8210, "Ġheels": 8211, "Ġheartbroken": 8212, "Ġhabit": 8213, "Ġgroups": 8214, "Ġgoodies": 8215, "Ġgladly": 8216, "Ġglued": 8217, "Ġghosts": 8218, "Ġgazing": 8219, "Ġgaps": 8220, "Ġfoam": 8221, "Ġfamiliar": 8222, "Ġfoggy": 8223, "Ġfitting": 8224, "Ġexample": 8225, "Ġerase": 8226, "Ġdrivers": 8227, "Ġdrifted": 8228, "Ġdiscussing": 8229, "Ġdisob": 8230, "Ġdetails": 8231, "Ġdesper": 8232, "Ġdelivering": 8233, "Ġdeed": 8234, "Ġdancers": 8235, "Ġcurl": 8236, "Ġcrocodiles": 8237, "Ġcreamy": 8238, "Ġcorners": 8239, "Ġconnection": 8240, "Ġconvers": 8241, "Ġcleans": 8242, "Ġcleaner": 8243, "Ġchocolates": 8244, "Ġchipmunks": 8245, "Ġcouple": 8246, "Ġbumping": 8247, "Ġbud": 8248, "Ġbleeds": 8249, "Ġblast": 8250, "Ġbicycles": 8251, "Ġbelts": 8252, "Ġbelongings": 8253, "Ġbells": 8254, "Ġbehavior": 8255, "Ġbeehive": 8256, "Ġbully": 8257, "Ġborn": 8258, "Ġattitude": 8259, "Ġaliens": 8260, "Ġaffect": 8261, "Ġache": 8262, "Ġaim": 8263, "ĠYet": 8264, "ĠWoofy": 8265, "ĠWise": 8266, "ĠWinter": 8267, "ĠTry": 8268, "ĠTable": 8269, "ĠSeth": 8270, "ĠSausage": 8271, "ĠSal": 8272, "ĠReady": 8273, "ĠRusty": 8274, "ĠRoy": 8275, "ĠRazor": 8276, "ĠPiney": 8277, "ĠPawpaw": 8278, "ĠParky": 8279, "ĠPam": 8280, "ĠOrange": 8281, "ĠNorth": 8282, "ĠNavy": 8283, "ĠMikey": 8284, "ĠMaddie": 8285, "ĠKai": 8286, "ĠJune": 8287, "ĠJug": 8288, "ĠJu": 8289, "ĠHello": 8290, "ĠFunny": 8291, "ĠFish": 8292, "ĠFierce": 8293, "ĠFelix": 8294, "ĠExcited": 8295, "ĠElephant": 8296, "ĠDragon": 8297, "ĠDictionary": 8298, "ĠCol": 8299, "ĠCir": 8300, "ĠCici": 8301, "ĠCassie": 8302, "ĠBubbly": 8303, "ĠBruce": 8304, "ĠBeef": 8305, "ĠAuntie": 8306, "ĠAri": 8307, "âĢĿ,": 8308, "yl": 8309, "ylv": 8310, "ylvia": 8311, "ya": 8312, "while": 8313, "well": 8314, "vi": 8315, "undred": 8316, "unBun": 8317, "umps": 8318, "upt": 8319, "uke": 8320, "the": 8321, "roccoli": 8322, "rmie": 8323, "reech": 8324, "rent": 8325, "rays": 8326, "ror": 8327, "people": 8328, "po": 8329, "pilot": 8330, "pen": 8331, "pan": 8332, "ounced": 8333, "oty": 8334, "orful": 8335, "opher": 8336, "onk": 8337, "omp": 8338, "omach": 8339, "oot": 8340, "oiled": 8341, "ndy": 8342, "lock": 8343, "laire": 8344, "ithered": 8345, "ishe": 8346, "ishek": 8347, "inier": 8348, "iggled": 8349, "ices": 8350, "ication": 8351, "iya": 8352, "hishek": 8353, "five": 8354, "eyed": 8355, "ernard": 8356, "ellyfish": 8357, "edication": 8358, "dding": 8359, "daughter": 8360, "chers": 8361, "ccas": 8362, "cada": 8363, "cadabra": 8364, "count": 8365, "cal": 8366, "ca": 8367, "bracadabra": 8368, "brother": 8369, "bbling": 8370, "bba": 8371, "bhishek": 8372, "bec": 8373, "asured": 8374, "asmine": 8375, "aret": 8376, "arrow": 8377, "anie": 8378, "alloween": 8379, "affle": 8380, "adually": 8381, "abella": 8382, "aven": 8383, "act": 8384, "Tweet": 8385, "Terry": 8386, "Slowly": 8387, "Robby": 8388, "Roo": 8389, "Pr": 8390, "Pipp": 8391, "OO": 8392, "Nick": 8393, "Missy": 8394, "Megan": 8395, "Mother": 8396, "More": 8397, "Make": 8398, "Makayla": 8399, "Kim": 8400, "Jolly": 8401, "Jon": 8402, "Jessie": 8403, "Im": 8404, "Heidi": 8405, "Honey": 8406, "Friend": 8407, "Eww": 8408, "Does": 8409, "David": 8410, "Clara": 8411, "Chirp": 8412, "Co": 8413, "Claire": 8414, "Cathy": 8415, "Bo": 8416, "Bess": 8417, "Bang": 8418, "Am": 8419, "Ġyumm": 8420, "Ġwriter": 8421, "Ġwrapper": 8422, "Ġwoken": 8423, "Ġwithin": 8424, "Ġwindowsill": 8425, "Ġwinners": 8426, "Ġwhoever": 8427, "Ġwhispering": 8428, "Ġwanna": 8429, "Ġwadd": 8430, "Ġvibr": 8431, "Ġupside": 8432, "Ġund": 8433, "Ġtype": 8434, "Ġtreasured": 8435, "Ġtrotted": 8436, "Ġtownspeople": 8437, "Ġtopp": 8438, "Ġthicker": 8439, "Ġtempted": 8440, "Ġsweaty": 8441, "Ġsuccessfully": 8442, "Ġstrongest": 8443, "Ġstriking": 8444, "Ġstork": 8445, "Ġstamped": 8446, "Ġstains": 8447, "Ġstacked": 8448, "Ġsqueaky": 8449, "Ġspeaker": 8450, "Ġspat": 8451, "Ġsoot": 8452, "Ġsnuck": 8453, "Ġsnort": 8454, "Ġsmartest": 8455, "Ġsmashed": 8456, "Ġslices": 8457, "Ġsingle": 8458, "Ġsimply": 8459, "Ġsilently": 8460, "Ġshrunk": 8461, "Ġshinier": 8462, "Ġshame": 8463, "Ġself": 8464, "Ġsecurity": 8465, "Ġsculpture": 8466, "Ġscampered": 8467, "Ġsacks": 8468, "Ġrubbish": 8469, "Ġrobbers": 8470, "Ġrips": 8471, "Ġreturning": 8472, "Ġresponse": 8473, "Ġrespected": 8474, "Ġrecommended": 8475, "Ġraising": 8476, "Ġrumbling": 8477, "Ġrack": 8478, "Ġquieter": 8479, "Ġquarreled": 8480, "Ġquizzes": 8481, "Ġprizes": 8482, "Ġprayers": 8483, "Ġplans": 8484, "Ġpeels": 8485, "Ġparks": 8486, "Ġpaddling": 8487, "Ġowls": 8488, "Ġorders": 8489, "Ġoccas": 8490, "Ġnodding": 8491, "Ġnibbled": 8492, "Ġnur": 8493, "Ġnatur": 8494, "Ġmovements": 8495, "Ġmisch": 8496, "Ġmiracle": 8497, "Ġmember": 8498, "Ġmelons": 8499, "Ġmedals": 8500, "Ġmayor": 8501, "Ġmaterial": 8502, "Ġmasterpiece": 8503, "Ġmarking": 8504, "Ġloudest": 8505, "Ġlimits": 8506, "Ġlicking": 8507, "Ġlevel": 8508, "Ġlent": 8509, "Ġkeen": 8510, "Ġkilled": 8511, "Ġinstruments": 8512, "Ġinstrument": 8513, "Ġinspired": 8514, "Ġignoring": 8515, "Ġhoneycom": 8516, "Ġheight": 8517, "Ġhatched": 8518, "Ġhandsome": 8519, "Ġhour": 8520, "Ġguide": 8521, "Ġgranddaughter": 8522, "Ġgobble": 8523, "Ġglittering": 8524, "Ġglittered": 8525, "Ġglimmering": 8526, "Ġgardens": 8527, "Ġfoxes": 8528, "Ġforgives": 8529, "Ġforce": 8530, "Ġflock": 8531, "Ġflashing": 8532, "Ġflown": 8533, "Ġfaith": 8534, "Ġexplorer": 8535, "Ġenthusiasm": 8536, "Ġdrip": 8537, "Ġdressing": 8538, "Ġdoorstep": 8539, "Ġdonkey": 8540, "Ġdiscussed": 8541, "Ġdisappearing": 8542, "Ġdirtier": 8543, "Ġdesigning": 8544, "Ġdelaying": 8545, "Ġdedication": 8546, "Ġcurrent": 8547, "Ġcrystals": 8548, "Ġcreations": 8549, "Ġcracks": 8550, "Ġcousin": 8551, "Ġcountries": 8552, "Ġcorrectly": 8553, "Ġcooperate": 8554, "Ġconversations": 8555, "Ġcoloured": 8556, "Ġcollapsed": 8557, "Ġcloths": 8558, "Ġclearly": 8559, "Ġchosen": 8560, "Ġcheckout": 8561, "Ġcheating": 8562, "Ġcheat": 8563, "Ġchalks": 8564, "Ġcarries": 8565, "Ġcamels": 8566, "Ġbuying": 8567, "Ġbreathed": 8568, "Ġbravest": 8569, "Ġbraid": 8570, "Ġboomed": 8571, "Ġbelieving": 8572, "Ġbeaming": 8573, "Ġbattle": 8574, "Ġaware": 8575, "Ġattack": 8576, "Ġastronauts": 8577, "Ġarran": 8578, "Ġapologised": 8579, "Ġafar": 8580, "Ġadmiration": 8581, "Ġability": 8582, "ĠWhoever": 8583, "ĠWhich": 8584, "ĠWell": 8585, "ĠWaffle": 8586, "ĠVivi": 8587, "ĠViolet": 8588, "ĠUniversity": 8589, "ĠTyler": 8590, "ĠTrusty": 8591, "ĠTomorrow": 8592, "ĠTomee": 8593, "ĠToe": 8594, "ĠThermie": 8595, "ĠTiya": 8596, "ĠTell": 8597, "ĠTay": 8598, "ĠStan": 8599, "ĠSpeed": 8600, "ĠSpoiled": 8601, "ĠSpiny": 8602, "ĠSpaghetti": 8603, "ĠSooty": 8604, "ĠSofia": 8605, "ĠShow": 8606, "ĠShare": 8607, "ĠSeeing": 8608, "ĠSamantha": 8609, "ĠRod": 8610, "ĠRainbow": 8611, "ĠRuffy": 8612, "ĠRoger": 8613, "ĠRing": 8614, "ĠRel": 8615, "ĠRalph": 8616, "ĠPrune": 8617, "ĠPrint": 8618, "ĠPlaying": 8619, "ĠPerky": 8620, "ĠPatty": 8621, "ĠPassport": 8622, "ĠPick": 8623, "ĠOtherwise": 8624, "ĠOxy": 8625, "ĠNight": 8626, "ĠMore": 8627, "ĠMick": 8628, "ĠMacie": 8629, "ĠLuke": 8630, "ĠLoyal": 8631, "ĠLon": 8632, "ĠLina": 8633, "ĠLiloo": 8634, "ĠLia": 8635, "ĠLemon": 8636, "ĠLaura": 8637, "ĠKevin": 8638, "ĠKaty": 8639, "ĠJonny": 8640, "ĠJeremy": 8641, "ĠJellyfish": 8642, "ĠJeep": 8643, "ĠJay": 8644, "ĠIan": 8645, "ĠHugs": 8646, "ĠHerb": 8647, "ĠHurry": 8648, "ĠHalloween": 8649, "ĠHairy": 8650, "ĠFuzzy": 8651, "ĠFurry": 8652, "ĠFix": 8653, "ĠFarmer": 8654, "ĠEating": 8655, "ĠDavey": 8656, "ĠDaniella": 8657, "ĠDust": 8658, "ĠDull": 8659, "ĠDespite": 8660, "ĠDeal": 8661, "ĠClumsy": 8662, "ĠClimb": 8663, "ĠCircle": 8664, "ĠChick": 8665, "ĠCarrie": 8666, "ĠBobbie": 8667, "ĠBebe": 8668, "ĠBeam": 8669, "ĠBroccoli": 8670, "ĠBelle": 8671, "ĠBelieve": 8672, "ĠAmanda": 8673, "ĠAbbot": 8674, "ĠAbbie": 8675, "ĠApp": 8676, "ĠQuick": 8677, "Ã±": 8678, "Ã±ata": 8679, "ydney": 8680, "what": 8681, "woof": 8682, "ware": 8683, "vey": 8684, "ustom": 8685, "urtles": 8686, "upid": 8687, "undreds": 8688, "unched": 8689, "umpkin": 8690, "uffin": 8691, "udged": 8692, "ucas": 8693, "three": 8694, "stalk": 8695, "sol": 8696, "shaped": 8697, "shadow": 8698, "sess": 8699, "ssess": 8700, "sa": 8701, "rick": 8702, "respect": 8703, "repe": 8704, "repeat": 8705, "rack": 8706, "rus": 8707, "rupt": 8708, "rup": 8709, "ptop": 8710, "owel": 8711, "orking": 8712, "ongratulated": 8713, "oni": 8714, "ollen": 8715, "ngest": 8716, "nap": 8717, "mered": 8718, "lle": 8719, "lest": 8720, "ldie": 8721, "like": 8722, "kie": 8723, "ives": 8724, "issy": 8725, "ironment": 8726, "insed": 8727, "iller": 8728, "ighty": 8729, "ighing": 8730, "ieves": 8731, "idgey": 8732, "iciest": 8733, "iÃ±ata": 8734, "iven": 8735, "hearted": 8736, "hile": 8737, "guard": 8738, "ening": 8739, "empt": 8740, "eka": 8741, "dog": 8742, "covered": 8743, "countered": 8744, "cock": 8745, "byes": 8746, "belle": 8747, "becca": 8748, "beh": 8749, "balls": 8750, "bage": 8751, "aybird": 8752, "arper": 8753, "arles": 8754, "arger": 8755, "ants": 8756, "anguage": 8757, "anwhile": 8758, "anne": 8759, "anced": 8760, "ams": 8761, "alth": 8762, "ading": 8763, "addle": 8764, "acing": 8765, "Yield": 8766, "Whose": 8767, "Whistle": 8768, "Wiggly": 8769, "Want": 8770, "Twink": 8771, "Too": 8772, "Suzie": 8773, "Spark": 8774, "Splash": 8775, "Skip": 8776, "Sasha": 8777, "Rain": 8778, "Rachel": 8779, "Prince": 8780, "Pepper": 8781, "Promise": 8782, "Only": 8783, "Ooh": 8784, "Nothing": 8785, "Never": 8786, "Lulu": 8787, "Lucky": 8788, "Linda": 8789, "Karen": 8790, "Jacob": 8791, "Hippy": 8792, "Hmm": 8793, "Froggy": 8794, "Eric": 8795, "Elly": 8796, "El": 8797, "EP": 8798, "EEP": 8799, "Dino": 8800, "Deal": 8801, "Cara": 8802, "Birdy": 8803, "Being": 8804, "Beth": 8805, "Always": 8806, "Ahh": 8807, "Aunt": 8808, "Abracadabra": 8809, "Abby": 8810, ".'\"": 8811, "Ġyummiest": 8812, "Ġyoungest": 8813, "Ġwobbles": 8814, "Ġwishing": 8815, "Ġwhipped": 8816, "Ġweighing": 8817, "Ġwealth": 8818, "Ġwashes": 8819, "Ġwarmly": 8820, "Ġwalrus": 8821, "Ġvehicles": 8822, "Ġunz": 8823, "Ġtwists": 8824, "Ġtwirls": 8825, "Ġtwinkled": 8826, "Ġtripping": 8827, "Ġtossed": 8828, "Ġtongues": 8829, "Ġtips": 8830, "Ġthunderstorm": 8831, "Ġthieves": 8832, "Ġtempting": 8833, "Ġtaped": 8834, "Ġtalents": 8835, "Ġtumbling": 8836, "Ġsyrup": 8837, "Ġswimmer": 8838, "Ġsweetly": 8839, "Ġsweep": 8840, "Ġswollen": 8841, "Ġstrips": 8842, "Ġsteering": 8843, "Ġstacks": 8844, "Ġstacking": 8845, "Ġstall": 8846, "Ġspinner": 8847, "Ġspelled": 8848, "Ġspeedy": 8849, "Ġspies": 8850, "Ġsped": 8851, "Ġsoftened": 8852, "Ġsoapy": 8853, "Ġsoaking": 8854, "Ġsneaks": 8855, "Ġsleepover": 8856, "Ġskunk": 8857, "Ġsilky": 8858, "Ġshovels": 8859, "Ġshooed": 8860, "Ġships": 8861, "Ġshown": 8862, "Ġshave": 8863, "Ġscene": 8864, "Ġscreech": 8865, "Ġscaly": 8866, "Ġsadder": 8867, "Ġsav": 8868, "Ġsou": 8869, "Ġsill": 8870, "Ġrowboat": 8871, "Ġrisks": 8872, "Ġrightful": 8873, "Ġresults": 8874, "Ġreminds": 8875, "Ġrecipe": 8876, "Ġreassured": 8877, "Ġreader": 8878, "Ġrails": 8879, "Ġrotten": 8880, "Ġrinsed": 8881, "Ġpurring": 8882, "Ġprotection": 8883, "Ġprog": 8884, "Ġprank": 8885, "Ġpotion": 8886, "Ġponyt": 8887, "Ġpossess": 8888, "Ġpleas": 8889, "Ġpleaded": 8890, "Ġplayhouse": 8891, "Ġplugged": 8892, "Ġpinches": 8893, "Ġpeacefully": 8894, "Ġpeacock": 8895, "Ġpew": 8896, "Ġpartner": 8897, "ĠpiÃ±ata": 8898, "Ġostriches": 8899, "Ġopportunity": 8900, "Ġnurses": 8901, "Ġnights": 8902, "Ġnets": 8903, "Ġnearest": 8904, "Ġnearly": 8905, "Ġnatural": 8906, "Ġniece": 8907, "Ġmums": 8908, "Ġmessed": 8909, "Ġmesses": 8910, "Ġmeadows": 8911, "Ġmailing": 8912, "Ġmac": 8913, "Ġmunching": 8914, "Ġmate": 8915, "Ġmain": 8916, "Ġlocal": 8917, "Ġlifeguard": 8918, "Ġleapt": 8919, "Ġleans": 8920, "Ġleaped": 8921, "Ġleaking": 8922, "Ġlava": 8923, "Ġlaptop": 8924, "Ġlush": 8925, "Ġlimp": 8926, "Ġlarger": 8927, "Ġknives": 8928, "Ġjoyfully": 8929, "Ġjoyful": 8930, "Ġjeweler": 8931, "Ġjeeps": 8932, "Ġjackets": 8933, "Ġjaybird": 8934, "Ġjars": 8935, "Ġinjured": 8936, "Ġinchworm": 8937, "Ġinches": 8938, "Ġhummed": 8939, "Ġhopeless": 8940, "Ġhoneycomb": 8941, "Ġheavily": 8942, "Ġhealth": 8943, "Ġhardest": 8944, "Ġharmony": 8945, "Ġhalfway": 8946, "Ġhairbrush": 8947, "Ġgulp": 8948, "Ġgracefully": 8949, "Ġgrains": 8950, "Ġgranny": 8951, "Ġgobbled": 8952, "Ġglee": 8953, "Ġglided": 8954, "Ġgarbage": 8955, "Ġgroom": 8956, "Ġgates": 8957, "Ġfourth": 8958, "Ġforgiven": 8959, "Ġforeshadow": 8960, "Ġfocus": 8961, "Ġfluttering": 8962, "Ġfascinating": 8963, "Ġfarmers": 8964, "Ġfans": 8965, "Ġfacing": 8966, "Ġenvironment": 8967, "Ġengines": 8968, "Ġendings": 8969, "Ġencountered": 8970, "Ġefforts": 8971, "Ġeld": 8972, "Ġdustpan": 8973, "Ġdrowned": 8974, "Ġdoorbell": 8975, "Ġdizzier": 8976, "Ġdisappointment": 8977, "Ġdisrespect": 8978, "Ġdefin": 8979, "Ġdamaged": 8980, "Ġdump": 8981, "Ġcutest": 8982, "Ġcuriously": 8983, "Ġcrowded": 8984, "Ġcrickets": 8985, "Ġcruel": 8986, "Ġcrouched": 8987, "Ġcoughing": 8988, "Ġcoughed": 8989, "Ġcopied": 8990, "Ġcoolest": 8991, "Ġcod": 8992, "Ġcode": 8993, "Ġclubs": 8994, "Ġcirc": 8995, "Ġchoosing": 8996, "Ġcherished": 8997, "Ġcherish": 8998, "Ġcheaper": 8999, "Ġcertainly": 9000, "Ġcells": 9001, "Ġcables": 9002, "Ġcustom": 9003, "Ġcrew": 9004, "Ġcoral": 9005, "Ġcongratulated": 9006, "Ġburnt": 9007, "Ġbund": 9008, "Ġbolt": 9009, "Ġbellies": 9010, "Ġbeetles": 9011, "Ġbeanstalk": 9012, "Ġbeast": 9013, "Ġbeating": 9014, "Ġbanner": 9015, "Ġbacks": 9016, "Ġbaa": 9017, "Ġbless": 9018, "Ġawhile": 9019, "Ġautomobiles": 9020, "Ġattempt": 9021, "Ġapproach": 9022, "Ġappears": 9023, "Ġallowing": 9024, "Ġalthough": 9025, "Ġairplanes": 9026, "Ġafford": 9027, "Ġadds": 9028, "Ġabilities": 9029, "ĠWhale": 9030, "ĠWest": 9031, "ĠWork": 9032, "ĠWaddle": 9033, "ĠVroom": 9034, "ĠUse": 9035, "ĠTuesdays": 9036, "ĠToad": 9037, "ĠTimothy": 9038, "ĠTuffy": 9039, "ĠTowel": 9040, "ĠStartled": 9041, "ĠStomach": 9042, "ĠSnake": 9043, "ĠShiny": 9044, "ĠScott": 9045, "ĠSamson": 9046, "ĠSasha": 9047, "ĠSage": 9048, "ĠRollie": 9049, "ĠRuff": 9050, "ĠReka": 9051, "ĠRadish": 9052, "ĠPokie": 9053, "ĠPercy": 9054, "ĠPauline": 9055, "ĠPack": 9056, "ĠNeigh": 9057, "ĠMousey": 9058, "ĠMarch": 9059, "ĠMiller": 9060, "ĠMighty": 9061, "ĠMatch": 9062, "ĠLooking": 9063, "ĠLock": 9064, "ĠLiza": 9065, "ĠLimey": 9066, "ĠLewis": 9067, "ĠLance": 9068, "ĠLa": 9069, "ĠJoel": 9070, "ĠIvy": 9071, "ĠIndy": 9072, "ĠHooty": 9073, "ĠHopper": 9074, "ĠHansel": 9075, "ĠGoldie": 9076, "ĠGreg": 9077, "ĠGilly": 9078, "ĠFriendship": 9079, "ĠFridgey": 9080, "ĠFind": 9081, "ĠFace": 9082, "ĠEat": 9083, "ĠDoes": 9084, "ĠDress": 9085, "ĠColorful": 9086, "ĠClose": 9087, "ĠChucky": 9088, "ĠCats": 9089, "ĠCook": 9090, "ĠCone": 9091, "ĠCamp": 9092, "ĠBunBun": 9093, "ĠBernard": 9094, "ĠBarrel": 9095, "ĠAnnabel": 9096, "ĠAmelia": 9097, "ĠAlly": 9098, "ĠAbhishek": 9099, "Ġill": 9100, "ĠYay": 9101, "ĠOh": 9102, "yan": 9103, "vinced": 9104, "vo": 9105, "urly": 9106, "unged": 9107, "umpier": 9108, "ulf": 9109, "uses": 9110, "that": 9111, "ters": 9112, "tool": 9113, "tled": 9114, "tick": 9115, "there": 9116, "stered": 9117, "str": 9118, "stop": 9119, "shop": 9120, "screen": 9121, "snap": 9122, "sister": 9123, "rum": 9124, "rug": 9125, "rude": 9126, "rough": 9127, "ppity": 9128, "poison": 9129, "py": 9130, "ousel": 9131, "ousy": 9132, "ouble": 9133, "otato": 9134, "oscope": 9135, "ortunately": 9136, "oosh": 9137, "ooked": 9138, "ondon": 9139, "onut": 9140, "onished": 9141, "onia": 9142, "oey": 9143, "nything": 9144, "notty": 9145, "mates": 9146, "lls": 9147, "lling": 9148, "kest": 9149, "ka": 9150, "jo": 9151, "iza": 9152, "iti": 9153, "ita": 9154, "ists": 9155, "inger": 9156, "ingerb": 9157, "ingerbread": 9158, "inning": 9159, "inations": 9160, "ilson": 9161, "igers": 9162, "haw": 9163, "hand": 9164, "getic": 9165, "gery": 9166, "giving": 9167, "formed": 9168, "found": 9169, "fly": 9170, "ethoscope": 9171, "ertrude": 9172, "dest": 9173, "cutter": 9174, "conut": 9175, "cie": 9176, "cent": 9177, "can": 9178, "boards": 9179, "bars": 9180, "baa": 9181, "aturday": 9182, "ative": 9183, "atitude": 9184, "asers": 9185, "artin": 9186, "arted": 9187, "arney": 9188, "arefully": 9189, "arah": 9190, "arac": 9191, "arvey": 9192, "antastic": 9193, "ansformed": 9194, "angle": 9195, "andel": 9196, "anish": 9197, "amal": 9198, "alan": 9199, "Zoe": 9200, "Yesterday": 9201, "Willow": 9202, "Twinkle": 9203, "Todd": 9204, "Tuna": 9205, "Try": 9206, "Tia": 9207, "Start": 9208, "Sylvia": 9209, "Sophia": 9210, "Sleep": 9211, "Since": 9212, "Sari": 9213, "Rudy": 9214, "Rosie": 9215, "Ring": 9216, "Red": 9217, "Pippin": 9218, "Phil": 9219, "Paws": 9220, "Owl": 9221, "Outside": 9222, "Open": 9223, "Nancy": 9224, "Mikey": 9225, "Mo": 9226, "Michael": 9227, "Many": 9228, "Mail": 9229, "Mai": 9230, "Lizzie": 9231, "Lina": 9232, "Laura": 9233, "Kip": 9234, "Kids": 9235, "Ken": 9236, "Jet": 9237, "Jeremy": 9238, "Jan": 9239, "Jamie": 9240, "Jamal": 9241, "Ice": 9242, "Granny": 9243, "Find": 9244, "Ever": 9245, "Eva": 9246, "Dr": 9247, "Dizzy": 9248, "Cool": 9249, "Clean": 9250, "Bobbie": 9251, "Bea": 9252, "Brian": 9253, "Bless": 9254, "Bert": 9255, "Ahoy": 9256, "Aw": 9257, "55": 9258, "--": 9259, "Ġyuck": 9260, "Ġwriggled": 9261, "Ġworkshop": 9262, "Ġwoodcutter": 9263, "Ġwinding": 9264, "Ġwiggles": 9265, "Ġwhimpering": 9266, "Ġwhimpered": 9267, "Ġwhirl": 9268, "Ġwhine": 9269, "Ġwebs": 9270, "Ġwaddled": 9271, "Ġvisits": 9272, "Ġunwrap": 9273, "Ġundone": 9274, "Ġtraveling": 9275, "Ġtrails": 9276, "Ġtransformed": 9277, "Ġthump": 9278, "Ġtests": 9279, "Ġtents": 9280, "Ġtemperature": 9281, "Ġtaps": 9282, "Ġtanks": 9283, "Ġtying": 9284, "Ġturtles": 9285, "Ġtumbled": 9286, "Ġtigers": 9287, "Ġtant": 9288, "Ġswimsuits": 9289, "Ġsweeter": 9290, "Ġswitches": 9291, "Ġsurgery": 9292, "Ġsunscreen": 9293, "Ġsuns": 9294, "Ġsuggestion": 9295, "Ġstroller": 9296, "Ġstrum": 9297, "Ġstomachs": 9298, "Ġstained": 9299, "Ġstethoscope": 9300, "Ġsquished": 9301, "Ġsquinted": 9302, "Ġsprinkled": 9303, "Ġsprung": 9304, "Ġsprout": 9305, "Ġspeaks": 9306, "Ġspaces": 9307, "Ġspy": 9308, "Ġspare": 9309, "Ġsolving": 9310, "Ġsoftest": 9311, "Ġsobbing": 9312, "Ġsmoked": 9313, "Ġsleeps": 9314, "Ġslithered": 9315, "Ġsickness": 9316, "Ġshoreline": 9317, "Ġshimmering": 9318, "Ġseashe": 9319, "Ġscreens": 9320, "Ġscratchy": 9321, "Ġscarier": 9322, "Ġscent": 9323, "Ġsinking": 9324, "Ġsens": 9325, "Ġrustling": 9326, "Ġrunny": 9327, "Ġruby": 9328, "Ġroutine": 9329, "Ġroute": 9330, "Ġrobe": 9331, "Ġribbit": 9332, "Ġresponsib": 9333, "Ġrespecting": 9334, "Ġresisted": 9335, "Ġreplying": 9336, "Ġrepeats": 9337, "Ġrecords": 9338, "Ġrecipes": 9339, "Ġreapp": 9340, "Ġrats": 9341, "Ġrumbled": 9342, "Ġrises": 9343, "Ġquicker": 9344, "Ġpuffed": 9345, "Ġprogress": 9346, "Ġpriv": 9347, "Ġpresented": 9348, "Ġpraise": 9349, "Ġponytail": 9350, "Ġpoisonous": 9351, "Ġposes": 9352, "Ġplanting": 9353, "Ġplank": 9354, "Ġpills": 9355, "Ġpersu": 9356, "Ġpatches": 9357, "Ġpassenger": 9358, "Ġparticularly": 9359, "Ġpantry": 9360, "Ġpairs": 9361, "Ġpainful": 9362, "Ġpackages": 9363, "Ġpounced": 9364, "Ġordering": 9365, "Ġonions": 9366, "Ġnoticing": 9367, "Ġnibble": 9368, "Ġneighed": 9369, "Ġmustered": 9370, "Ġmotorcycles": 9371, "Ġmonth": 9372, "Ġmomma": 9373, "Ġmoles": 9374, "Ġmold": 9375, "Ġmixes": 9376, "Ġmelts": 9377, "Ġmeaning": 9378, "Ġmatey": 9379, "Ġmats": 9380, "Ġmarvel": 9381, "Ġmagnifying": 9382, "Ġmoo": 9383, "Ġluckily": 9384, "Ġlightly": 9385, "Ġlif": 9386, "Ġlies": 9387, "Ġlearner": 9388, "Ġlamps": 9389, "Ġlull": 9390, "Ġinterrupt": 9391, "Ġinsisting": 9392, "Ġinju": 9393, "Ġimaginations": 9394, "Ġhurtful": 9395, "Ġhotter": 9396, "Ġhorror": 9397, "Ġhooks": 9398, "Ġhonesty": 9399, "Ġhover": 9400, "Ġheaven": 9401, "Ġhandlebars": 9402, "Ġhandy": 9403, "Ġhundreds": 9404, "Ġgumballs": 9405, "Ġguarding": 9406, "Ġgroaned": 9407, "Ġgrumpier": 9408, "Ġgrumbled": 9409, "Ġgratitude": 9410, "Ġgoodbyes": 9411, "Ġglide": 9412, "Ġgasps": 9413, "Ġgoo": 9414, "Ġgingerbread": 9415, "Ġfreshly": 9416, "Ġfreezing": 9417, "Ġforts": 9418, "Ġforests": 9419, "Ġfond": 9420, "Ġflooded": 9421, "Ġflashes": 9422, "Ġflips": 9423, "Ġfences": 9424, "Ġfulf": 9425, "Ġfantastic": 9426, "Ġexamining": 9427, "Ġerasers": 9428, "Ġenergetic": 9429, "Ġdollhouse": 9430, "Ġdollar": 9431, "Ġdodging": 9432, "Ġdisobeyed": 9433, "Ġdisgusted": 9434, "Ġdisagreement": 9435, "Ġdifferently": 9436, "Ġdesperate": 9437, "Ġdefinitely": 9438, "Ġdecoration": 9439, "Ġdecl": 9440, "Ġdate": 9441, "Ġdandel": 9442, "Ġcurve": 9443, "Ġcrows": 9444, "Ġcroaked": 9445, "Ġcroak": 9446, "Ġcreak": 9447, "Ġcracking": 9448, "Ġcontinuing": 9449, "Ġcontained": 9450, "Ġconsiderate": 9451, "Ġconvinced": 9452, "Ġcompromise": 9453, "Ġcompare": 9454, "Ġcommunity": 9455, "Ġcommand": 9456, "Ġcombing": 9457, "Ġcommon": 9458, "Ġcoloring": 9459, "Ġcosy": 9460, "Ġcond": 9461, "Ġcoconut": 9462, "Ġclut": 9463, "Ġchopped": 9464, "Ġchirps": 9465, "Ġcheated": 9466, "Ġchin": 9467, "Ġcharac": 9468, "Ġcarousel": 9469, "Ġcaptured": 9470, "Ġburger": 9471, "Ġbullies": 9472, "Ġbuilder": 9473, "Ġbuckled": 9474, "Ġbrushing": 9475, "Ġbreaths": 9476, "Ġbreads": 9477, "Ġbounces": 9478, "Ġborrowed": 9479, "Ġblamed": 9480, "Ġbits": 9481, "Ġbirdhouse": 9482, "Ġbehaviour": 9483, "Ġbeeps": 9484, "Ġbangs": 9485, "Ġbun": 9486, "Ġbuddy": 9487, "Ġawful": 9488, "Ġatop": 9489, "Ġartwork": 9490, "Ġarranged": 9491, "Ġapologizing": 9492, "Ġallowance": 9493, "Ġaloud": 9494, "Ġagreeing": 9495, "Ġaeroplanes": 9496, "Ġachievement": 9497, "Ġaccomplished": 9498, "Ġaccidents": 9499, "ĠZoey": 9500, "ĠWilson": 9501, "ĠVera": 9502, "ĠTrouble": 9503, "ĠTime": 9504, "ĠTap": 9505, "ĠSundays": 9506, "ĠSteph": 9507, "ĠShapey": 9508, "ĠSydney": 9509, "ĠSlow": 9510, "ĠSince": 9511, "ĠSaturday": 9512, "ĠRoxy": 9513, "ĠReliable": 9514, "ĠRyan": 9515, "ĠRude": 9516, "ĠRita": 9517, "ĠRingo": 9518, "ĠRavi": 9519, "ĠQuickly": 9520, "ĠPickles": 9521, "ĠPebbles": 9522, "ĠPaulina": 9523, "ĠPotato": 9524, "ĠPhil": 9525, "ĠPark": 9526, "ĠOwen": 9527, "ĠNightmare": 9528, "ĠNicki": 9529, "ĠMona": 9530, "ĠMarie": 9531, "ĠMarcy": 9532, "ĠMs": 9533, "ĠMagic": 9534, "ĠLucas": 9535, "ĠLoop": 9536, "ĠLenny": 9537, "ĠLand": 9538, "ĠKnotty": 9539, "ĠKit": 9540, "ĠKiss": 9541, "ĠJuice": 9542, "ĠJodie": 9543, "ĠJoanne": 9544, "ĠJet": 9545, "ĠJason": 9546, "ĠJasmine": 9547, "ĠHook": 9548, "ĠHaley": 9549, "ĠHa": 9550, "ĠGia": 9551, "ĠGerry": 9552, "ĠGarry": 9553, "ĠFlutter": 9554, "ĠFreeze": 9555, "ĠFarah": 9556, "ĠEverybody": 9557, "ĠEliza": 9558, "ĠEva": 9559, "ĠEric": 9560, "ĠDonna": 9561, "ĠDonkey": 9562, "ĠDoggo": 9563, "ĠDancing": 9564, "ĠCrocky": 9565, "ĠCroc": 9566, "ĠCrabby": 9567, "ĠCrab": 9568, "ĠCookies": 9569, "ĠClayman": 9570, "ĠCloud": 9571, "ĠClare": 9572, "ĠCarrot": 9573, "ĠCaroline": 9574, "ĠCarol": 9575, "ĠCurly": 9576, "ĠCelia": 9577, "ĠBiggy": 9578, "ĠBumpkin": 9579, "ĠBoppy": 9580, "ĠBirthday": 9581, "ĠBarry": 9582, "ĠAnother": 9583, "ĠAmira": 9584, "ĠAlthough": 9585, "ĠâĢĿ": 9586, "Ġicky": 9587, "ydr": 9588, "ydrant": 9589, "xophone": 9590, "working": 9591, "war": 9592, "venture": 9593, "vince": 9594, "vals": 9595, "usion": 9596, "urrying": 9597, "urchase": 9598, "urger": 9599, "unted": 9600, "umed": 9601, "uliar": 9602, "uction": 9603, "udy": 9604, "this": 9605, "talk": 9606, "stantly": 9607, "stand": 9608, "ssib": 9609, "shirt": 9610, "site": 9611, "sers": 9612, "rrrrr": 9613, "rowing": 9614, "ringe": 9615, "rier": 9616, "rett": 9617, "rench": 9618, "reative": 9619, "reams": 9620, "rest": 9621, "rem": 9622, "rave": 9623, "rain": 9624, "rt": 9625, "rown": 9627, "rous": 9628, "rily": 9629, "ploy": 9630, "ployee": 9631, "pew": 9632, "ps": 9633, "pop": 9634, "ori": 9635, "oped": 9636, "ooh": 9637, "oliday": 9638, "obe": 9639, "obble": 9640, "opped": 9641, "oard": 9642, "ngel": 9643, "ndrous": 9644, "nings": 9645, "mbie": 9646, "master": 9647, "mill": 9648, "loor": 9649, "locks": 9650, "llowed": 9651, "llas": 9652, "lect": 9653, "leasing": 9654, "lass": 9655, "jects": 9656, "jest": 9657, "jestic": 9658, "ivated": 9659, "itive": 9660, "itched": 9661, "itam": 9662, "isease": 9663, "isher": 9664, "irate": 9665, "inting": 9666, "ingling": 9667, "iments": 9668, "illi": 9669, "ildren": 9670, "ifully": 9671, "ifact": 9672, "ientist": 9673, "ievous": 9674, "ieving": 9675, "idney": 9676, "iddy": 9677, "idden": 9678, "ida": 9679, "ickey": 9680, "icious": 9681, "icent": 9682, "icated": 9683, "icate": 9684, "ibbles": 9685, "hew": 9686, "glub": 9687, "ggles": 9688, "ggies": 9689, "ganizing": 9690, "garet": 9691, "faction": 9692, "flow": 9693, "fived": 9694, "fire": 9695, "exit": 9696, "etwork": 9697, "etime": 9698, "erina": 9699, "emma": 9700, "eling": 9701, "edee": 9702, "ew": 9703, "eeling": 9704, "eedee": 9705, "eat": 9706, "dventure": 9707, "don": 9708, "date": 9709, "da": 9710, "cto": 9711, "creams": 9712, "cos": 9713, "cloth": 9714, "changed": 9715, "chant": 9716, "cess": 9717, "bran": 9718, "branch": 9719, "behaved": 9720, "burger": 9721, "bling": 9722, "barrow": 9723, "bang": 9724, "atilda": 9725, "astly": 9726, "ashes": 9727, "arty": 9728, "arrot": 9729, "arley": 9730, "anya": 9731, "antic": 9732, "anley": 9733, "anion": 9734, "ampion": 9735, "aja": 9736, "agine": 9737, "admill": 9738, "acey": 9739, "ably": 9740, "ander": 9741, "Zero": 9742, "Zara": 9743, "Whoa": 9744, "Wally": 9745, "Vera": 9746, "Up": 9747, "Toot": 9748, "Toy": 9749, "Thing": 9750, "Tessa": 9751, "Tara": 9752, "Stanley": 9753, "Shine": 9754, "Spe": 9755, "Sm": 9756, "Say": 9757, "Rufus": 9758, "Rrrrrr": 9759, "Ralph": 9760, "RR": 9761, "RA": 9762, "People": 9763, "Paulie": 9764, "Push": 9765, "Poor": 9766, "Penny": 9767, "Oink": 9768, "OP": 9769, "Nana": 9770, "Meanwhile": 9771, "Mittens": 9772, "Martha": 9773, "Lori": 9774, "Lion": 9775, "Lemon": 9776, "La": 9777, "LE": 9778, "Kerry": 9779, "Juliet": 9780, "Jonathan": 9781, "Jug": 9782, "Jordan": 9783, "Isn": 9784, "Instead": 9785, "Ian": 9786, "Ho": 9787, "Haley": 9788, "Grab": 9789, "Grow": 9790, "Gogo": 9791, "Gobble": 9792, "Gina": 9793, "Gigi": 9794, "Flash": 9795, "Fortunately": 9796, "Fiona": 9797, "Father": 9798, "Excited": 9799, "Doctor": 9800, "Dara": 9801, "Coco": 9802, "Charles": 9803, "Cr": 9804, "Cow": 9805, "Count": 9806, "Camp": 9807, "Brrr": 9808, "Bingo": 9809, "Ball": 9810, "Back": 9811, "Baa": 9812, "Arrr": 9813, "April": 9814, "Again": 9815, "?âĢĿ.": 9816, "?!": 9817, "'?\"": 9818, "!âĢĻ": 9819, "Ġyelps": 9820, "Ġyawning": 9821, "Ġwrists": 9822, "Ġwrinkled": 9823, "Ġwrecks": 9824, "Ġwonderland": 9825, "Ġwobbling": 9826, "Ġwondrous": 9827, "Ġwinds": 9828, "Ġwiggly": 9829, "Ġwheelbarrow": 9830, "Ġwhizz": 9831, "Ġwhines": 9832, "Ġwhales": 9833, "Ġwelcoming": 9834, "Ġwatery": 9835, "Ġwarns": 9836, "Ġwarmer": 9837, "Ġwarmed": 9838, "Ġwalkie": 9839, "Ġvisitors": 9840, "Ġvillains": 9841, "Ġvibrant": 9842, "Ġveggies": 9843, "Ġvacu": 9844, "Ġvitam": 9845, "Ġuseless": 9846, "Ġunwrapped": 9847, "Ġuntangled": 9848, "Ġunload": 9849, "Ġunkind": 9850, "Ġunfair": 9851, "Ġunless": 9852, "Ġunison": 9853, "Ġuncovered": 9854, "Ġumbrellas": 9855, "Ġuna": 9856, "Ġtrusty": 9857, "Ġtrunks": 9858, "Ġtreadmill": 9859, "Ġtoppings": 9860, "Ġtone": 9861, "Ġtimid": 9862, "Ġticking": 9863, "Ġteases": 9864, "Ġtantrum": 9865, "Ġtakeout": 9866, "Ġtacos": 9867, "Ġtunes": 9868, "Ġsyringe": 9869, "Ġswirled": 9870, "Ġswayed": 9871, "Ġswapped": 9872, "Ġsurge": 9873, "Ġsupplying": 9874, "Ġsubjects": 9875, "Ġstriped": 9876, "Ġstrikes": 9877, "Ġstray": 9878, "Ġstomping": 9879, "Ġstirs": 9880, "Ġstepping": 9881, "Ġstur": 9882, "Ġsqueaking": 9883, "Ġsquaw": 9884, "Ġsprays": 9885, "Ġsprings": 9886, "Ġspoken": 9887, "Ġspeeds": 9888, "Ġspeeded": 9889, "Ġspool": 9890, "Ġspices": 9891, "Ġspades": 9892, "Ġsoothing": 9893, "Ġsoars": 9894, "Ġsnorted": 9895, "Ġsmoking": 9896, "Ġskating": 9897, "Ġsituations": 9898, "Ġsignal": 9899, "Ġsideways": 9900, "Ġshorts": 9901, "Ġshoots": 9902, "Ġshields": 9903, "Ġsharpened": 9904, "Ġshattered": 9905, "Ġseriously": 9906, "Ġserver": 9907, "Ġseashell": 9908, "Ġseagulls": 9909, "Ġsection": 9910, "Ġscrunched": 9911, "Ġscrub": 9912, "Ġscenery": 9913, "Ġscurrying": 9914, "Ġscri": 9915, "Ġscientist": 9916, "Ġsatisfaction": 9917, "Ġsandcastles": 9918, "Ġsaxophone": 9919, "Ġsizz": 9920, "Ġsite": 9921, "Ġroam": 9922, "Ġringmaster": 9923, "Ġreversing": 9924, "Ġrevealing": 9925, "Ġresponsibility": 9926, "Ġresponded": 9927, "Ġresisting": 9928, "Ġreplacing": 9929, "Ġregularly": 9930, "Ġrefreshing": 9931, "Ġrealizes": 9932, "Ġresol": 9933, "Ġrely": 9934, "Ġreleasing": 9935, "Ġreel": 9936, "Ġraking": 9937, "Ġraked": 9938, "Ġrowed": 9939, "Ġrash": 9940, "Ġquestioned": 9941, "Ġquacking": 9942, "Ġquitting": 9943, "Ġpromising": 9944, "Ġproduct": 9945, "Ġpostman": 9946, "Ġpossession": 9947, "Ġpolitely": 9948, "Ġpokes": 9949, "Ġpossib": 9950, "Ġplayfully": 9951, "Ġplaydate": 9952, "Ġplucked": 9953, "Ġplopped": 9954, "Ġpizzas": 9955, "Ġpetting": 9956, "Ġpersuade": 9957, "Ġpeeks": 9958, "Ġpeculiar": 9959, "Ġpatting": 9960, "Ġparting": 9961, "Ġparted": 9962, "Ġpanicked": 9963, "Ġpurchase": 9964, "Ġpuffy": 9965, "Ġpins": 9966, "Ġpasses": 9967, "Ġowning": 9968, "Ġoutfits": 9969, "Ġonward": 9970, "Ġoffering": 9971, "Ġoceans": 9972, "Ġoccasion": 9973, "Ġobeyed": 9974, "Ġnewfound": 9975, "Ġnestled": 9976, "Ġneared": 9977, "Ġnor": 9978, "Ġmustaches": 9979, "Ġmusical": 9980, "Ġmumbling": 9981, "Ġmotions": 9982, "Ġmornings": 9983, "Ġmischievous": 9984, "Ġminding": 9985, "Ġmindful": 9986, "Ġmillion": 9987, "Ġmiller": 9988, "Ġmilkman": 9989, "Ġmessier": 9990, "Ġmesmerised": 9991, "Ġmeetings": 9992, "Ġmassages": 9993, "Ġmagnificent": 9994, "Ġmajestic": 9995, "Ġmur": 9996, "Ġmood": 9997, "Ġmil": 9998, "Ġlullaby": 9999}