Ġ t
h e
Ġ a
Ġ s
Ġ w
Ġt he
n d
e d
Ġ b
Ġt o
Ġa nd
Ġ h
Ġ f
i n
Ġ T
Ġw a
r e
i t
o u
Ġ l
Ġ d
Ġ c
Ġ p
a y
Ġ m
e r
Ġwa s
o m
ĠT he
Ġ he
i s
Ġ n
a r
i m
o n
Ġs a
i d
l l
Ġh a
Ġ g
a t
in g
Ġ S
o t
e n
a n
l e
o r
i r
a m
Ġ H
e t
Ġt h
Ġ it
i g
ĠThe y
Ġ in
i l
ĠH e
Ġp l
Ġ "
o w
r i
v er
Ġb e
u t
Ġ u
Ġsa id
it h
p p
Ġpl ay
Ġw ith
Ġd ay
Ġ y
O n
Ġ o
o o
Ġ r
k ed
c e
Ġ I
Ġhe r
Ġh is
l d
ĠS he
ĠT im
k e
Ġs t
Ġ e
Ġb ig
n t
Ġy ou
s t
ver y
c k
v e
e nd
Ġha pp
u n
Ġ on
ri end
Ġf riend
Ġ L
a ll
il y
Ġthe y
Ġw e
Ġn ot
Ġha d
Ġl i
Ġwa nt
he r
Ġu p
Ġo f
it t
a d
s e
Ġ B
Ġd o
Ġhapp y
Ġ M
en t
Ġ very
e s
Ġsa w
Ġth at
On e
' s
Ġs h
Ġm om
ou ld
Ġf or
itt le
Ġl ittle
Ġs o
Ġn e
c h
Ġs he
. "
im e
Ġ k
Ġn am
Ġt ime
ou nd
Ġthe re
Ġnam ed
Ġs m
Ġb o
ĠL ily
Ġwe re
h t
T he
Ġb ut
ou t
Ġwant ed
v ed
! "
ĠT om
Ġfriend s
ir d
e l
a l
a ke
Ġa n
Ġb ird
u g
ĠI t
Ġto o
om e
id e
Ġhe l
Ġw ent
Ġ is
Ġw h
On ce
Ġhel p
Ġl o
Ġa ll
Ġl oo
u e
r y
t er
Ġ A
Ġup on
o re
i ll
i nd
Ġf un
Ġa t
r a
Ġto y
g et
am e
Ġa s
Ġ j
Ġd id
Ġ re
get her
u r
Ġs e
Ġto gether
Ġb a
oo d
Ġc at
l y
Ġt re
i c
ar t
Ġc an
Ġdo g
Ġc ould
ar k
Ġa re
e c
Ġthe ir
ar d
? "
ir l
m y
Ġl e
Ġh im
w ay
Ġg irl
Ġplay ed
a in
Ġk n
Ġg o
Ġ out
Ġf r
Ġb all
he d
Ġthe m
Ġr o
' t
he n
u m
a x
Ġsa d
u l
Ġha ve
Ġbo y
Ġm an
ot her
Ġtre e
Ġlo ved
Ġc l
ou g
Ġloo ked
on e
Ġf ound
Ġs p
Ġs c
ĠS ue
h ing
a re
Ġba ck
ow n
Ġli ke
ĠM ax
ig ht
f ul
s ide
Ġm e
Ġbe c
Ġp ark
o p
Ġst art
on g
el t
Ġm ake
Ġw ould
Y ou
Ġf a
Ġ One
Ġ W
Ġc ar
Ġf elt
e ll
Ġli ked
Ġl a
Ġne w
ou se
r ound
om et
i ce
ĠB en
Ġn o
Ġse e
ĠB ut
Ġstart ed
ar ed
Ġas ked
oug ht
ĠS am
Ġc ame
Ġa l
il ed
Ġ other
Ġa g
Ġs ay
Ġg ood
Ġsm all
Ġs omet
Ġb r
s s
ri ed
Ġsm iled
ing s
i a
ad e
o b
p ot
Ġf ind
Ġw or
Ġa way
en ed
Ġc o
Ġth ought
Ġfr om
Ġh ome
Ġe x
Ġwh at
Ġm ade
Ġsomet hing
a g
Ġp ut
Ġm u
u c
Ġe very
ar n
oo k
Ġplay ing
Ġ F
Ġr an
Ġwa l
a ch
Ġag ain
ĠS pot
i le
Ġs ome
Ġw ill
a ve
k ing
Ġle arn
Ġla ug
i e
Ġtoo k
Ġd own
Ġh ouse
Ġ You
Ġsc ared
is h
Ġf l
u re
d d
Ġp r
n y
Ġ J
Ġyou r
Ġth ings
Ġs w
Ġb l
Ġm y
i ck
i f
Ġtoy s
e p
ou d
ĠM ia
Ġf e
b le
Ġc h
re t
Ġa round
Ġbo x
Ġli ved
Ġw hen
pp ed
u ck
Ġs un
Ġthe n
, "
u s
t y
a p
Ġsay s
an k
T im
um p
Ġg et
uc y
is t
Ġkn e
Ġkn ow
T h
Ġt ried
Ġl ot
ot h
u st
Ġg ot
it ed
Ġwh o
Ġa b
a s
nd er
Ġab out
Ġan y
Ġr ed
Ġman y
a ce
Ġkne w
Ġm ore
Ġin t
Ġc are
i ve
is e
L ily
Ġd ec
Ġp o
Ġp ret
Ġlearn ed
Ġp ic
Ġloo k
all y
a u
q u
Ġo p
ĠL ucy
n a
ou s
Ġwa ter
Ġh o
Ġt a
Ġout side
Ġbec ame
Ġh ug
f ter
au se
Ġbe st
Ġe at
Ġ D
way s
Ġex c
an t
Ġlaug hed
ec t
ur p
Ġu n
Ġp e
it e
ĠA nd
Ġal ways
Ġd ad
Ġro om
ĠS o
Ġsh ow
Ġ v
Ġg re
Ġbec ause
Ġdec id
Ġ ke
Ġint o
Ġj ump
Ġb oth
Ġdecid ed
ĠM om
f e
â Ģ
Ġon e
Ġth is
ĠB ob
Ġn ice
The y
Ġfa st
er s
T om
Ġr un
u dd
Ġa m
Ġexc ited
Ġfe el
Ġs k
Ġ E
in y
Y es
Ġl ong
Ġm o
n na
u ll
Ġst r
Ġt ake
urp r
ou r
Ġs urpr
Ġto ld
W h
in k
Ġin side
Ġmu ch
Ġs or
Ġto w
Ġpret ty
im al
Ġe ach
Ġan imal
et ter
Ġ or
Ġf ish
Ġg ra
b b
Ġg ave
Ġh ow
le w
Ġth an
v en
B ut
Ġs l
Ġt r
g ed
Ġu nder
Ġne ed
Ġo ld
o g
Ġsor ry
g e
es s
Ġro ck
Ġ C
Ġbe ar
f t
ar a
ur t
ĠH is
Ġc le
is ed
Ġcl o
Ġf ood
Ġha nd
r o
he re
Ġwal ked
ĠW e
Ġanimal s
Ġt e
f f
Ġh ig
Ġk ind
g ry
Ġ ide
Ġj ust
Ġc a
Ġwa t
Ġdid n
v ing
Ġhapp ened
ur n
Ġb etter
Ġt ry
Ġne ar
a ck
Ġsk y
Ġf i
Ġide a
Ġsh are
Ġl ist
Ġhe ard
Ġu s
M om
Ġb ug
r om
Ġcare ful
Ġfl ow
at e
b y
Ġt w
Ġ en
in e
c hed
ĠA my
Ġ if
Ġit s
p ect
p l
Ġb u
Ġne ver
ec i
Ġf ly
a se
i on
r m
Ġl et
Ġc om
Ġf lew
l f
op le
e x
Th ank
Ġst or
re am
Ġr a
Ġg r
ĠT h
eci al
Ġsp ecial
Ġt al
Ġcle an
Ġsh iny
Ġlot s
m ore
Ġany more
or t
Ġw ind
ĠA nna
Ġd an
Ġlo ve
Ġb y
Ġe ven
Ġd on
Ġc ake
Ċ Ċ
Ġf ore
udd en
Ġf o
ĠThe n
Ġpe ople
Ġm ag
Ġh ard
ad y
Ġe nd
udden ly
Ġb ook
Ġb ad
Ġhig h
Ġf am
Ġop ened
Ġsa fe
Ġl oud
Ġh urt
Ġt urn
Ġdo or
Ġo ver
Ġa fter
Ġc he
a k
L et
u ff
Ġco l
pect ed
Ġpic ked
Ġsurpr ised
Ġwa y
Ġp a
ĠE very
Ġg round
' m
i p
Ġpr oud
Ġc u
Ġ im
ex pected
Ġun expected
Ġthan ked
Ġg l
Ġc ome
b er
ard en
Ġg arden
ag e
Ġf ar
Ġst ill
Ġsh ould
il d
Ġe ver
Ġbl ue
Ġg ive
Ġs n
ĠH er
um my
im b
ĠW hen
Ġof f
A s
Ġcl imb
N o
ĠF rom
Ġ P
Ġcol or
Ġhug ged
Ġ qu
Ġstr ong
k ay
oug h
Ġfam ily
Ġ K
Ġmag ic
Ġjump ed
he s
Ġk id
Ġsm ile
e m
Ġc all
i z
Ġpl ace
ĠI n
Ġfore st
oo l
Ġn ow
Ġbr o
p t
Ġb ra
Ġm a
Ġst o
Ġgre at
Ġd ra
Ġst ay
x t
Ġu nt
ĠS ara
Ġwal k
c t
Ġbe a
Ġstor y
itt y
Ġunt il
Ġbea ut
Ġhapp ily
uff y
Ġne xt
o on
re ss
Ġm ouse
t ure
Ġst ick
b e
n ing
le ase
d y
Ġkid s
a nd
Ġbe ing
Ġhelp ed
i ful
un ny
Ġbeaut iful
o y
i es
Ġim p
Ġs qu
Ġclo s
re e
Ġshow ed
Ġp art
Ġbo at
an e
Ġlist en
Ġtow n
Ġpic ture
H e
Ġm or
Ġt ra
ar s
re l
Ġfr og
Ġan gry
Ġevery one
Ġwh ile
ck s
Ġre m
Ġa pp
Ġsto pped
ĠW h
I t
g er
Ġho le
ĠL et
Ġ R
Ġha t
Ġwa rm
Ġr ain
C an
N ow
Ġy ummy
Ġat e
Ġbra ve
Ġso ft
bb it
l uffy
Ġwat ch
ar y
is s
Ġcall ed
Ġb ed
Ġw o
Ġop en
Ġa d
ĠS ally
Ġm et
Ġf ell
Ġd e
ĠK itty
Ġno ise
Ġw here
Ġlo st
Ġg ame
t h
s o
Ġra bbit
f ore
Ġc ry
is hed
W hen
Ġke ep
Ġal so
g an
v ent
Wh at
Ġfa ce
Ġb us
Ġke pt
Ġcould n
Ġp ain
Ġso on
ow l
dd ed
Ġb re
Ġdo ll
ĠF luffy
Ġtw o
ir st
Ġle ave
ug ht
se lf
m a
Ġc ook
Ġbe fore
ir ed
Ġflow ers
Ġw r
u ch
The n
Ġu se
Ġgre en
Ġhand s
Th at
Ġfun ny
Ġp us
ay be
H i
Ġno dded
a ir
Ġsa t
Ġst ore
ill y
ir rel
Ġtr uck
it c
Ġc ra
L ook
Ġsl ide
le s
Ġwa it
Ġgo ing
Ġr ace
Ġha ving
Ġsqu irrel
Ġloo king
Ġcat ch
Ġs ing
B en
Ġha s
itc hen
Ġk itchen
Ġbird s
Ġy ell
le ep
Ġus ed
Ġe y
Ġbe h
âĢ Ŀ
Ġbl o
Ġ our
âĢ ľ
an ge
a ble
Ġth r
Ġt ired
u it
Ġ ri
t hing
Ġmom my
Ġme an
Ġf in
Ġtal k
ĠC an
Ġ z
Ġfi x
Ġas k
Ġpo nd
or n
W e
Ġex pl
ĠJ o
Ġd uck
Ġb unny
ell o
H ello
em ber
Ġpart y
Ġother s
Ġd r
at h
Ġ Now
Ġs ound
Ġwor k
Ġt ri
Ġth ink
Ġp ull
d ay
Ġh op
a z
l ed
j oy
Ġsw e
n g
Ġmor al
Ġsun ny
Ġco ld
Ġf irst
Ġfl o
Ġfa v
ll ow
Ġimp ort
Ġd if
re w
Ġd ress
in t
Ġj o
Ġdra w
ou nt
Ġm ess
Ġsa nd
Ġre al
Ġen joy
Ġey es
Ġr ight
Ġ ice
Ġpain t
Ġrem ember
Ġhe ad
ĠD o
Ġo kay
Ġ G
Ġimport ant
Ġbr ight
im es
Ġma king
Ġv o
Ġcu ri
c o
ĠF in
Ġp ie
Ġh un
Ġd ir
h n
Ġc on
Ġcl a
Ġfo llow
Ġc ut
Ġ own
Ġflow er
k en
Ġt all
Ġfav or
Ġh id
Ġcuri ous
Ġta ble
A t
Ġfavor ite
Ġbeh ind
Ġsh ared
Ġhe re
W ow
Ġ âĢľ
i ous
Ġt ell
Ġre st
D on
Ġwor ked
Ġbe gan
Ġs leep
Ġn ight
Ġba g
Ġli on
Ġag re
d ed
Ġmo ve
Ġh ot
Ġad vent
ar ing
Ġst op
Ġfor g
Ġswe et
i ke
Ġsurpr ise
Ġwat ched
A fter
Ġfar m
ĠTh is
q ue
Ġr u
Ġp ick
Ġsh o
Ġl ady
Ġp ap
Ġwor ry
Ġm on
z y
st er
Ġwal king
Ġy ard
Ġth ing
Ġhun gry
Ġd ark
Ġvo ice
Ġagre ed
M ax
Ġto uch
i ed
Ġp er
Ġflo or
Ġd is
Ġha ir
Ġlaug h
Ġta il
Wh y
A nna
Ġcolor s
fe re
Ġtre es
Ġdif fere
Ġgra ss
Ġc ried
Ġsh out
ed e
Ġto p
Ġclos er
ot t
Ġbe l
Ġta st
Ġf ull
a c
Ġl ight
Ġdo es
ĠM r
Ġp lease
ig n
ĠS uddenly
Ġdiffere nt
pp y
er ed
Ġre ad
Ġcar s
Ġc r
b o
Ġblo cks
Ġs ong
Ġwa ll
S am
Ġbut ter
Ġw ood
Ġsw im
Ġfi re
ll y
ĠA s
il a
Ġh ill
Ġturn ed
Ġre ady
Ġneed ed
Ġfr uit
Ġleave s
Ġbro ken
Ġpap er
one y
Ġpr om
S ue
ĠJ ack
âĢ Ļ
Ġdan ce
by e
Ġyell ow
Ġpie ce
Ġf ight
S uddenly
Ġd el
nd ma
Ġfriend ly
Ġw et
Ġfeel ing
Ġadvent ure
w here
is y
c ked
i ent
in s
Ġrun ning
Ġho ld
Ġan other
ĠTh at
Ġlist ened
Ġmu s
Ġm ight
ĠBob o
Ġon ly
c ed
at er
Ġam az
Ġsw ing
Ġd ri
Ġclo se
ic y
Ġqu ick
Ġl ess
M ia
Ġba by
Ġpl an
a v
S he
S o
Ġs it
Ġper f
Ġclimb ed
Ġc ream
Ġse es
Ġgood bye
Ġfa ir
a ched
Ġmu st
Ġc ount
Ġwa g
Ġro ll
Ġball oon
Ġgl ad
ĠA ll
Ġwo nder
Ġsn ow
Ġw in
ĠD ad
Ġne st
Ġch air
ic ed
Ġg one
Ġbu ild
Ġsm ell
Ġsl ow
r ed
e ar
Ġmom ent
Ġpret end
a f
S ara
ke y
Ġhelp ing
at her
Ġre pl
Ġnam e
ĠJ ane
Ġpl ant
Ġw ished
Ġdo ing
bb ed
Ġwind ow
Ġb it
Ġunder st
Ġtry ing
Ġbu y
Ġh ide
Ġc ool
Ġa c
Ġst uck
ĠMom my
Ġcl oud
Ġle ft
Ġhe ld
Ġf all
out h
Ġst e
Ġbe en
d s
as h
Ġa r
ĠEvery one
Ġd one
Ġlook s
Ġcom ing
am es
Ġth ree
Ġdir ty
Ġbutter f
Ġpus hed
g ing
c le
Ġquick ly
Ġt iny
Ġre ached
iz ed
t ing
Ġapp le
ĠTim my
Ġth ank
Ġm outh
Ġ owl
Ġb ar
Ġcla pped
O kay
Ġthr ough
Ġbook s
o om
at ion
a ught
O h
Ġp u
Ġtow er
Ġwh y
Ġd ream
Ġsomet imes
Ġj ob
Ġa nt
av y
I n
Ġp ink
Ġf ill
Ġless on
Ġa ir
Ġsw am
Ġm ar
Ġgr ow
ĠThe re
Th is
Ġexpl ore
Ġbr other
i x
ow er
Ġs ure
Ġsp l
Ġlike s
Ġb ott
Ġhe ar
Ġshout ed
Ġd ro
Ġrepl ied
ie ld
Ġpull ed
Ġremember ed
Ġany thing
Ġ O
Ġbig ger
Ġla nd
Ġke y
Ġd in
Ġwood s
Ġwa ved
Ġcu p
Ġbr an
' re
Ġch ild
ou p
Ġsc ary
Ġw ise
uck y
Ġbro ke
Ġturn s
el y
Ġmus ic
p e
Ġp at
ap e
Ġtra in
Ġbutterf ly
Ġre ach
Ġnot iced
Ġc re
Ġal one
a isy
Ġenjoy ed
Ġb ike
p h
Ġjo in
Ġa rm
L ucy
Ġse en
Ġs na
or m
Ġtre at
Ġpicture s
Ġb lew
Ġg ames
Ġwor ld
Ġwa ited
Ġs et
as ure
Ġm at
Ġcon t
J o
Ġr ide
Ġj e
ro om
Ġcolor ful
Ġp en
Ġm ix
d er
Ġ ve
Ġevery where
Ġbre ak
am p
Ġstay ed
udd y
Ġbl ack
ri es
Ġforg ot
Ġca st
Ġg ent
i et
e e
S pot
Ġp ot
Ġhe avy
ĠA fter
in ce
Ġm iss
Ġj u
Ġfollow ed
Ġhim self
ĠWh at
Ġca nd
Ġmake s
Ġwr ong
Ġw on
Ġho pped
Ġgra bbed
Ġse a
Ġcl ot
itt en
Ġqu iet
is ter
Ġclot hes
Ġle g
Ġst u
Ġt ight
le ss
B ob
are nt
Ġn ap
Ġwant s
n er
t on
Ġunderst and
Ġbe e
z e
Ġpo l
" .
if t
an ce
Ġle af
m an
Ġcom p
r ot
th y
H er
D o
Ġwh ite
ĠJo hn
Ġg ift
Ġth rew
Ġp arent
l c
Ġfast er
Ġd ry
Ġbe ach
ct or
Ġbr ought
ĠB uddy
i re
Ġpo int
Ġri ver
u ed
Ġb or
ĠIn side
Ġh it
ull y
ou n
in i
Ġs ister
ve s
Ġs ign
ĠD aisy
Ġre l
Ġr ound
H is
n in
Ġde ep
Ġwor ds
ing in
Ġs ide
Ġhapp en
b ble
Ġk ing
ĠJo e
s h
pp er
f ully
Ġe m
ĠL ila
Ġsm art
ard s
Ġtal ked
Ġcast le
Ġv is
Ġperf ect
an g
Ġgra ndma
Ġcook ies
Ġw ish
Ġre ally
Ġpr ince
Ġwe ll
Ġb owl
g y
Ġcra b
Ġto day
Ġwe ar
r ow
Ġwor ried
o lly
Ġsome one
Ġbut ton
Ġre s
Ġb ite
im i
ĠM aybe
Ġsh aring
Ġdin ner
ĠB illy
F rom
Ġf ield
Ġf ur
Ġbott le
ĠT o
Ġm um
Mom my
ĠSara h
Ġdel ic
Ġcont in
ed dy
Ġsa ng
Ġj ar
Jo hn
Ġdra g
Ġfly ing
M aybe
Ġst ar
f ort
Ġsp r
Ġse c
itt ing
Ġfin ished
Ġf ree
Ġask s
Wh ile
Ġbran ch
J ust
Ġvis it
en ce
Ġsmile s
Ġs u
Ġdan ced
ĠSo on
ro ss
Ġl ake
Ġfair y
Ġmon ster
Ġfill ed
Ġmu d
Ġe le
Ġcare fully
Ġbl ank
Ġeat ing
Ġ que
Ġreal ized
Ġprom ised
Ġg u
Ġg i
or d
Ġparent s
Ġsh in
Ġp ig
Ġsec ret
Ġcontin ued
Ġwith out
Ġsa il
Ġpa st
Ġamaz ing
Ġdrag on
Ġblank et
a st
Ġthr ow
Ġl etter
Ġche e
Ġen ough
i ver
e ad
Ġy es
Ġe l
ck et
Ġwag ged
Ġtre asure
Ġst one
Ġor ange
Ġfo x
Ġdan ger
Ġmo ved
Ġli ving
Ġevery thing
Ġcre at
ig h
Ġbr own
Ġsp ot
Ġch o
Ġrock s
st ead
i ch
Ġb oun
Ġm oney
Ġel se
e ars
Ġp urp
Ġhig her
F in
g g
ĠA t
ay on
Ġcr ayon
re n
Ġtal king
Ġba s
Ġca ught
Ġbar ked
Ġpurp le
Ġc ow
o s
Ġsho es
k et
Ġe gg
Ġbas ket
ĠM imi
Ġc e
z z
c y
Ġrun s
ĠE m
i ble
Ġwe lc
Ġs oup
Ġl on
Ġdr ink
Ġclos ed
Ġchild ren
Ġsc ream
Ġp re
co l
Ġwh ist
Ġsn ake
Ġpa w
Ġlon ely
Ġs itting
Ġ -
Ġfarm er
e my
aught y
Ġst and
Ġn aughty
un ch
Ġst re
Ġm other
Ġmon key
s y
Ġat t
Ġte ac
Ġs illy
Ġdo ctor
Ġcar rot
Ġto uc
e st
Ġcry ing
Ġ Z
Ġsa m
Ġsam e
ell a
Ġp et
is k
A my
. âĢĿ
Ġbre ad
Ġsm o
Ġb ath
pp ing
Ġsp in
Ġget ting
us h
Ġlaug hing
ir t
ch ool
al thy
Ġpiece s
is es
Ġsw ings
Ġb uck
at ed
Ġthink s
Ġma il
Ġco ll
Ġc ave
Ġw ings
er ry
e y
Ġshin ing
ĠG ra
Ġs chool
Ġy ears
us ed
Ġhop ed
Ġtw ins
ve l
isk ers
bo ard
Ġp udd
Ġstr ange
Ġshe ll
Ġro ad
Ġcut e
Ġtouc hed
Ġp h
Ġhe art
Ġdanger ous
Ġar ri
b all
Ġtast y
am a
a le
! âĢĿ
Ġbel ie
id ge
Ġwelc ome
Ġtr ou
Ġto m
Ġchee se
e o
Ġday s
c ing
Ġsh op
Ġown er
Ġteac her
P lease
Ġse at
Ġp ill
Ġmor ning
ĠTom my
m ing
f ish
c hes
Ġsing ing
Ġn ut
Ġm ad
Ġp ers
Ġh oney
Ġco at
Ġsh ap
Ġpa ss
as ed
Ġv ill
Ġroll ed
ĠC h
Ġbr ing
l ue
Ġro b
Ġpr ob
le m
it ch
Ġno se
Ġher self
Ġse ar
Ġprob lem
ump y
Ġw he
Ġt eddy
in ed
Ġrob ot
Ġarri ved
a ss
Ġpus h
Ġdro pped
i pped
Ġte ach
Ġstre et
s et
ra ct
Ġsa ck
ĠWh iskers
Ġp ower
Ġk itten
Ġcand y
Ġsee m
Ġju ice
u nt
Ġpo cket
Ġgre w
Ġc orn
Ġw ra
Ġk ite
Ġb en
Ġfin ally
Ġp ath
Ġf an
ĠR emy
Ġgent le
ll ie
Ġpu ppy
Ġw ore
Ġprom ise
Ġp ile
oo se
o l
a il
Ġshap es
Ġbus y
Ġwo ke
O K
Ġf ence
Ġe as
Ġche ered
ad ow
Ġc our
b ow
Ġcour se
ph ant
' ll
m on
an a
Ġsna ck
Ġsh ake
Ġnot e
Ġin c
Ġl unch
Ġcook ie
Ġc ir
uc ce
g le
Ġbug s
i er
Ġf it
Ġbe ll
ĠB ella
o ve
Ġsh r
Ġs ucce
Ġdelic ious
Ġben ch
Ġin v
s c
Ġele phant
Ġbus h
ĠEm ma
Ġwa r
Ġvill age
o st
Ġstr ing
ir p
Ġgr ay
Ġco ver
Ġbuck et
ĠB lue
f used
Ġapp les
Ġrain bow
Ġhid ing
Ġfe w
Ġbel ong
Ġpat ient
Ġne ck
ĠL eo
Ġle mon
Ġfore ver
ĠF red
Ġwonder ful
Ġse ed
Ġru d
Ġhold ing
Ġta king
Ġm ark
Ġj oy
ĠTh ank
un a
Ġsh ook
Ġl ate
Ġwr ite
Ġrud e
Ġl ucky
id er
Ġk iss
ĠJ im
urt le
G ood
Ġme et
Ċ Ġ
Fin ally
Ġfight ing
Ġb ow
th day
ir thday
g ly
en s
Ġpudd le
Ġhelp ful
Ġfeel s
our n
o se
L ila
Ġj ourn
Ġb at
Ġa ble
Ġcl oth
Ġbo ss
Ġprince ss
Ġsp o
Ġba nd
Ġre c
Ġdir t
Ġb irthday
n n
Ġz oom
Ġtow ards
Ġdri ver
Ġbelie ve
Ġw ide
Ġo b
Ġmagic al
is a
Ġth in
Ġro pe
Ġp op
ep end
Ġli ft
Ġsp icy
Ġsee k
Ġli ve
Ġgra b
s w
Ġmo st
Ġm ine
Ġan sw
e ared
al m
a pp
Ġamaz ed
il ing
Ġsound s
Ġyou ng
Ġtri p
Ġtake s
Ġb one
u b
iz e
Ġor gan
Ġbu bble
Ġup set
se s
Ġt urtle
Ġspl as
Ġsp ider
Ġslow ly
Ġsa l
Ġn et
at o
S ure
Ġsand w
Ġd es
Ġcar ry
fort able
Ġtreat s
Ġm ap
Ġsnow man
Ġsh y
Ġa ct
b r
ar p
il k
O f
Ġpl ane
Ġm ist
Ġcom es
ld er
d en
Ġs ug
Ġdis app
Ġch ange
Ġno ises
at or
Ġr ing
ĠJ en
Ġsh arp
Ġdoll s
Ġsp oon
Ġhug s
Ġhid den
re ad
er t
He y
Ġwhist le
Ġin stead
Ġdri ve
Ġst ars
w e
Ġsp ark
Ġfor get
ĠJ ust
Ġ ent
Ġhop e
or s
Ġmo on
Ġm ilk
Ġcra w
n ot
Ġmess y
it y
B e
Ġm ach
Ġz oo
Ġs er
l ing
k in
Ġla st
Ġdr um
le t
Ġstor ies
Ġsl id
Ġs ick
Ġpe ace
Ġball s
ĠFin ally
ount ain
or k
o ppy
Ġste pped
Ġboss y
Ġwa ve
Ġu gly
Ġsmo oth
Ġd ig
Ġsh irt
Ġli fe
Ġco in
Ġcan not
Ġ N
and y
Ġplant s
Ġgr umpy
Ġdad dy
Ġd i
oo p
l ower
et er
um b
Ġst ep
Ġshe lf
Ġl ay
Ġdro ve
ĠB e
Ġd ist
Ġleg s
p ty
Ġh or
Ġc ou
Ġb ought
ot ect
Ġwas n
Ġpr otect
Ġfix ed
Ġem pty
i an
Ġm in
Ġhug e
ĠB u
og gy
Ġsmell y
Ġpill ow
Ġmach ine
Ġkn o
Ġd rew
Ġb ark
Ġsong s
Ġl ater
Ġgl ow
u p
Ġmy ster
Ġw ild
Ġmiss ed
irp y
Ġv al
Ġsp e
Ġsc ar
Ġs el
Ġch ick
ĠA nn
Ġwas h
Ġf il
Ġ On
Ġch ased
t o
aught er
Ġtast e
Ġspl ash
Ġgr ate
Ġgi ant
Ġcloud s
Ġas h
Ġfruit s
ĠL isa
ĠJ ill
Ġl ine
Ġf le
Ġduck s
Ġs our
ir r
L ater
Ġwhe el
Ġwatch ing
Ġsel fish
Ġarm s
Ġo ven
Ġde er
Ġwait ing
Ġv an
Ġque en
w el
Ġjo ke
Ġgrate ful
Ġdog s
Ġcho col
ul t
S oon
Ġseem ed
Ġg un
Ġfe ather
A nd
Ġs uddenly
Ġd aughter
on t
e re
c er
am ed
Ġspr ay
Ġsh ip
Ġplace s
Ġfo ot
Ġcon fused
Ġwonder ed
Ġtrou ble
Ġex p
ul ar
b or
S t
Ġwe ak
Ġstick s
Ġjump ing
Ġfr ont
Ġche er
ĠM ark
ĠC ome
Ġsa ve
Ġm aybe
Ġfin ish
Ġcrayon s
Ġb ri
ll a
Ġri ch
Ġje wel
Ġchocol ate
oo f
bo x
Ġsu pp
u ce
Ġwo lf
ĠThe ir
Ġscar f
Ġpu zz
Ġche w
ĠCh irpy
um ber
ar ge
Ġsw an
Ġro d
Ġpr int
Ġpower ful
Ġp ar
Ġkne e
Ġim ag
Ġface s
ĠP e
m er
Ġph one
Ġne igh
Ġmight y
Ġk ick
Ġeas y
ĠB unny
op e
J ack
Ġstor m
Ġput s
Ġp ract
Ġland ed
Ġc art
Ġbe ak
iz zy
Ġsa ved
Ġp our
Ġj og
Ġac ross
ĠTo gether
ĠGra ndma
Ġw ip
Ġl ad
ion s
Ġh ar
Ġfur ry
ere st
Ġj un
Ġadventure s
ĠMom o
Ġswim ming
Ġon to
Ġf ing
Ġint erest
Ġf at
Ġc alm
Ġ icy
T o
Ġy ear
Ġp ool
Ġm ot
Ġgive s
w ard
u ally
Ġpers on
ĠWh y
one st
d ge
Ġlad der
Ġher o
ĠW ith
ĠS p
s p
Ġc ard
er a
e ver
S ally
Ġst ood
Ġh onest
Ġdan cing
Ġany one
Ġwe aring
Ġshe ep
Ġth ough
Ġso l
Ġscream ed
Ġg ate
a ur
Ġm ind
Ġlove ly
Ġexpl ain
it ing
Ġtri es
Ġtr ue
Ġl arge
Ġboun ce
Ġ ign
ge st
Ġt id
Ġsn ee
Ġlo ck
Ġgent ly
Ġal ong
ĠL una
on es
e k
Ġres pect
Ġfe et
Ġb al
? âĢĿ
Ġsucce ss
Ġpoint ed
Ġp in
Ġcoll ect
ĠJ erry
Ġy og
Ġso ap
Ġb an
iss ors
i pp
Ġf ake
as k
C ome
Ġs uch
Ġnot hing
Ġmist ake
Ġhor se
Ġcle ver
Ġa f
y ard
v ous
m ent
lder ly
Ġsc issors
Ġlove s
Ġhe althy
Ġe lderly
Ġback yard
Ġw ing
Ġsh adow
Ġimp ress
Ġgo es
Ġbuild ing
ell y
Ġwho le
Ġtr ust
Ġforg ive
Ġc age
or row
Ġe ar
Ġbe an
ll o
er vous
Ġmat ch
Ġle ad
Ġpl ate
Ġn ervous
Ġch ase
Ġapp eared
Ġlong er
Ġclean ed
ig er
Ġtid y
Ġsplas hed
Ġsear ch
Ġinterest ing
Ġgo ld
ra id
M y
Ġsleep y
Ġpre s
Ġpo or
Ġcla ss
Ġash amed
Ġaf raid
ĠI f
ug h
omet imes
c il
Ġsandw ich
Ġp an
Ġe ag
Ġcreat ive
Ġc ross
et h
Ġtow el
Ġpen cil
Ġcir cle
n ic
irr or
Ġpic nic
Ġm irror
Ġcl ap
Ġbor ing
ĠT iny
Ġwa nd
Ġto ugh
Ġre t
Ġnear by
Ġte st
Ġr ough
Ġmyster ious
Ġdec or
el p
K itty
Ġexpl or
ĠS t
s er
Ġte a
Ġs ur
Ġg ather
Ġd ish
Ġballoon s
Ġba ld
op h
l o
g led
Ġt ape
Ġsm iling
Ġret urn
Ġmo d
Ġm ed
Ġha ng
Ġdraw ing
ow ed
Ġwra p
Ġw om
Ġcou ch
ra g
n an
Ġwom an
Ġwag on
Ġtom orrow
Ġt ie
Ġh um
ot e
oom y
im p
Ġsug ar
Ġpretend ed
Ġmo v
Ġla w
Ġho se
ic ked
Ġwor king
Ġp ack
ĠM y
ut e
as p
Ġr ad
Ġpol ite
Ġj elly
ie ved
Ġthe se
Ġte le
Ġst amp
Ġpres ent
um sy
iz z
is p
if f
bb y
a w
Ġwh ale
Ġst ret
Ġsmell ed
Ġclo ck
Ġc one
Tom my
Ġsal ad
Ġgr oup
Ġeag er
Ġbo ard
ĠM ary
St op
H elp
Ġfe ed
Ġfe ar
Ġco zy
Ġbl ow
ĠBen ny
Ġmot or
Ġm ic
Ġg en
ens ive
Ġyell ed
Ġpuzz le
Ġfr idge
Ġem b
ĠM olly
n ed
Ġtw ist
Ġgl ue
Ġcl own
ĠD on
ar l
Ġwh isp
Ġpeace ful
Ġno isy
Ġfo ld
Ġexp ensive
ĠP lease
ĠO llie
ĠC at
l ight
er ce
Ġre g
Ġmo le
Ġfi erce
Ġdr ank
Ġde ad
Ġc ri
y al
Ġwor d
Ġsc r
Ġque st
Ġhe llo
Ġgu ess
Ġcl umsy
ĠJim my
ĠBob by
Ġp ri
Ġk icked
ĠM ama
ur se
ra ss
if e
ar rass
a king
Ġemb arrass
Ġcorn er
Ġant s
Ġwa ke
Ġsh ore
Ġsc o
Ġp ump
Ġlo yal
Ġg ar
Ġfl ag
Ġegg s
Ġad m
vent ually
rag ile
an y
Ġro se
Ġmat ter
Ġlo g
Ġh ur
Ġd ull
ĠH ow
Ġwa ves
Ġtast ed
Ġrel ieved
Ġperf orm
Ġf ragile
Ġbor ed
re en
J im
Ġte am
Ġsa f
Ġj ug
red ible
Ġm elt
Ġfr ight
Ġbubble s
ĠG o
n ess
Ġpaint ed
Ġinc redible
Ġgar age
Ġbal ance
Ġac orn
ĠW ill
Ġwr ote
Ġst ra
ĠS ome
on y
in a
er ries
Ġg oose
Ġcr own
Ġbre ath
Ġb erries
Ġa v
ĠAnd y
x ible
Ġz ip
Ġtell s
Ġst ir
Ġso ld
Ġh orn
Ġfl ash
ĠD oggy
Ġsh ark
Ġfle xible
Ġbec ome
ĠS ometimes
Ġ 3
Ġstu dy
Ġsa uce
Ġmar ch
Ġgl ass
Ġfright ened
Ġbr idge
Ġbe et
Ġa unt
d le
al k
Ġwor m
Ġsqu are
Ġs que
Ġm op
Ġclos et
Ġt ax
Ġr ug
Ġor d
Ġje ep
Ġg um
Ġd ug
r ay
or ry
Ġtom ato
Ġthank ful
Ġst ones
Ġra ven
Ġcover ed
Ġb arn
ig hed
ber ry
bb orn
Ġte eth
Ġtax i
Ġstu bborn
Ġr are
Ġgo at
Ġgen er
Ġ U
ot s
Ġw is
Ġshow s
Ġro ar
Ġjourn al
Ġh oop
Ġfan cy
Ġd izzy
Ġa p
i que
Ġwe althy
Ġun ique
Ġmom s
Ġcreat ure
Ġbeet le
Ġ ind
um e
p a
m et
Ġst uff
Ġpa nd
Ġhel met
Ġg ig
el on
Ġst at
Ġsh ape
Ġjun gle
Ġgener ous
p es
f ic
Ġwh ich
Ġwe ird
Ġneigh bor
Ġmark et
Ġm is
itt er
c ient
al ous
Ġunderst ood
Ġt ick
Ġmov ie
Ġm elon
Ġf ool
Ġdis co
Ġdif fic
Ġc ap
ĠB r
ust r
c om
D ad
Ġno ds
Ġlo se
Ġla zy
Ġhe ars
Ġf ine
Ġdiffic ult
Ġcar ried
Ġbr ush
Ġbo dy
Ġan cient
sh ine
l ace
Ġw ire
Ġsh ine
Ġsc are
Ġmix ed
Ġje alous
Ġch an
ĠT V
l ves
M e
E very
Ġsw ord
Ġsp ace
Ġfool ish
Ġche st
Ġce re
Ġrock et
Ġri ce
Ġneck lace
ĠDad dy
ustr ated
sc ape
Ġsor t
Ġsna cks
Ġbran ches
u al
l ive
i pper
Ġyour s
Ġsun shine
Ġkno cked
Ġcere al
ĠB ird
al s
Ġpump kin
Ġpo em
Ġc am
ĠE lla
get able
Ġval ue
Ġun lo
Ġsp ent
Ġn orm
Ġimpress ive
Ġfam ous
u nd
Ġve getable
Ġth ick
Ġsp read
Ġpaw s
Ġp ay
Ġno sy
Ġcom fortable
Ġchick en
rew ork
ot ter
W here
Ġun k
Ġr at
Ġnorm al
Ġl amp
Ġfr ustrated
Ġcount ed
Ġ otter
y m
ink y
b led
M ama
Ġtw ig
Ġrel ax
Ġm ug
Ġknow ing
Ġex am
Ġembarrass ed
Ġcarrot s
Ġb urn
ĠT r
ĠF r
orm ous
c orn
Ġwould n
Ġstat ue
Ġst age
Ġorgan ized
Ġha m
Ġfi rework
Ġen ormous
Ġcl ay
Ġansw er
ul if
n own
ie f
id dle
epend ent
col i
c coli
Ġse ll
Ġpop corn
Ġpe pper
Ġind ependent
Ġdr op
Ġas leep
Ġan g
ĠBr own
nd pa
le br
Ġtoo l
Ġsol ve
Ġsmall er
Ġsc reen
Ġpol ice
Ġf ountain
Ġce lebr
Ġcat s
Ġb ake
ulif lower
in ary
Ġunk nown
Ġmo ving
Ġign or
Ġhar m
Ġflash light
Ġcra zy
Ġas king
ĠD ucky
er y
c ut
Ġuse ful
Ġt er
Ġp ant
Ġm iddle
Ġ '
us ual
S orry
Ġso ck
Ġnut s
Ġhelp s
Ġha lf
Ġgl ove
Ġdisco ver
Ġcoll ar
Ġchan ged
Ġch oose
Ġc ries
r ob
c les
He re
Ġun usual
Ġter ri
Ġmag n
Ġhurt s
Ġc her
Ġwas hed
Ġtri ck
Ġn umber
Ġin k
Ġcle ar
Ġang el
un k
co a
Ġt ank
Ġsuccess ful
Ġsl ipped
Ġmail box
Ġexplor ing
Ġd epend
Ġbro ccoli
ĠM any
In side
Ġp ress
Ġhe al
Ġend ing
Ġbat ter
ĠA l
x ious
l and
an ut
Ġte m
Ġpand a
Ġoff ice
Ġjoin ed
Ġfing er
Ġcomp ass
ĠWh ile
uit ar
rob e
ott ed
l oo
ig loo
H ow
Ġwall s
Ġun iver
Ġt ire
Ġsto ve
Ġst ri
Ġsear ched
Ġp izz
Ġp ir
Ġj am
Ġhair y
Ġg uitar
Ġfor k
Ġcu be
Ġ igloo
os aur
il t
b ra
at ch
Ġta ught
Ġspe ed
Ġseed s
Ġsc ale
Ġpick s
Ġpant s
Ġg em
Ġfl ute
b in
an ger
Ġspo iled
Ġme asure
Ġdin osaur
l ph
ill a
Ġh unt
Ġfr own
Ġexc iting
Ġdepend able
ĠIn stead
ed ient
Ġth ief
Ġt ent
Ġstand ing
Ġpizz a
Ġmagn et
Ġj et
Ġcheer ful
Ġca bin
ĠM iss
n am
id ent
art h
ag es
Ġyour self
Ġw itch
Ġre p
Ġcam era
Ġca uliflower
Ġc ro
Ġan xious
nam ent
h ost
a ff
A re
Ġterri ble
Ġt ur
Ġsh iver
Ġor nament
Ġme ant
Ġjourn ey
Ġis land
Ġg host
Ġf our
Ġdo lph
Ġbath room
o int
To gether
I f
Ġta ken
Ġra ced
Ġpaint ing
Ġord inary
Ġob edient
Ġloo p
Ġhouse s
Ġfl uffy
Ġcompass ion
Ġcom b
Ġco al
Ġbra ce
Ġbott om
z ed
om es
Ġtur key
Ġthought ful
Ġplan et
Ġco coa
Ġche ap
Ġblo om
z zy
ia ble
i ant
e f
c key
Ġth irst
Ġt imes
Ġr h
Ġor der
Ġfind ing
Ġfil thy
Ġdisapp oint
Ġco st
Ġbrace let
ĠP oppy
Ġ No
ic t
ex t
er able
c ou
Ġste al
Ġsp otted
Ġrem ind
Ġmis erable
Ġho ckey
Ġhelp less
Ġhair cut
Ġgl oomy
Ġde st
Ġb itter
or y
m ost
i v
er p
ce pt
ac he
Ġwhisp ered
Ġt ied
Ġsho e
Ġs il
Ġre ef
Ġpri ze
Ġlo cked
Ġget s
ot o
in ess
cou ra
Ġthirst y
Ġsho ot
Ġexplain ed
Ġcry st
Ġc omet
ĠR ose
ĠB ear
g u
com fortable
Ġun comfortable
Ġtri cks
Ġsp un
Ġsp ill
Ġre f
Ġe scape
Ġcraw led
Ġbelong ed
Ġbed room
Ġal most
op l
ll iant
erp ill
er opl
d ile
co dile
Ġstra w
Ġspr ing
Ġinv ited
Ġharm less
Ġf ile
Ġen g
Ġcra ck
Ġcat erpill
Ġbe es
Ġa eropl
un g
u bby
se lves
p id
n ey
il ty
i o
g round
e bra
air s
Ġwra pped
Ġtem p
Ġstu pid
Ġsque e
Ġpers ist
Ġpass ed
Ġpa le
Ġneed s
Ġgu ilty
Ġgra ce
Ġdelic ate
Ġch ubby
Ġbu ilt
Ġbri lliant
Tim my
The re
Bob o
Ġvegetable s
Ġus ing
Ġrel iable
Ġpr ay
Ġpast a
Ġno d
Ġkiss ed
Ġjo lly
Ġcare less
p ort
Ġz ebra
Ġsleep ing
Ġshr imp
Ġr oof
Ġpat ch
Ġdisappoint ed
Ġcaterpill ar
Ġbasket ball
ĠS h
ĠP andy
Ġun cle
Ġstr anger
Ġsail or
Ġru b
Ġrod e
Ġrec ord
Ġlo ll
Ġfear ful
Ġcompassion ate
Ġb icy
Ġadvent ur
Ġy arn
Ġtrou bled
Ġtr ay
Ġt iger
Ġli cked
Ġg or
Ġdo ve
Ġcryst al
Ġcro codile
Ġc oo
Ġbig gest
Ġbar rel
Ġaeropl ane
Ġadventur ous
Ġac c
ĠSp ike
our s
g ust
Ġsun f
Ġstrong er
Ġser ious
Ġpersist ent
Ġmotor cy
Ġit ch
Ġdis gust
Ġde af
Ġcl ub
Ġboy s
ĠE ven
o nd
Ġto ast
Ġs uit
Ġru ined
Ġpr un
Ġmar ble
Ġj ack
Ġgr own
Ġgor illa
Ġeng ine
Ġcomp et
Ġal ert
ĠYou r
ip op
in o
Ġst ation
Ġs ighed
Ġp ip
Ġf ig
Ġca se
Ġbus hes
Ġblo ck
Ġb ump
ĠO K
ĠB et
ig in
c ream
Wh o
Ġtra vel
Ġtr unk
Ġte ars
Ġso ar
Ġsa iled
Ġpe anut
Ġp ow
Ġor igin
Ġloll ipop
Ġham mer
Ġgrace ful
Ġgra pes
Ġch ar
y ing
at ter
at s
a ppy
Ġwa ff
Ġsco ot
Ġpract iced
Ġorigin al
Ġhat s
Ġen coura
Ġdolph in
Ġch alk
Ġacc ident
ĠJen ny
urt ain
im ney
at es
ar rel
Jim my
Ġsk ip
Ġmotorcy cle
Ġlearn ing
Ġjack et
Ġh omes
Ġf ather
Ġdisgust ing
Ġcom fort
Ġco ins
Ġca ct
Ġc urtain
Ġboat s
u be
The ir
Ġv ide
Ġtri ang
Ġtemp le
Ġsk ull
Ġsk in
Ġs ink
Ġn ail
Ġloud er
Ġhunt er
Ġcompet it
Ġbicy cle
Ġac cept
u d
ak y
Ġpr o
Ġon es
Ġdes ign
Ġcoo ked
Ġcar p
Ġband age
G ra
Ġwe ek
Ġt ummy
Ġstr ug
Ġste ak
Ġr id
Ġmean s
Ġcount ing
Ġcomp let
Ġch imney
ĠSam my
Ġt ube
Ġspin ning
Ġse al
Ġmix er
Ġme al
Ġm itten
Ġle an
Ġla b
Ġh ive
Ġfor th
Ġcraw l
Ġc ell
ĠPe ople
ĠJ ake
ad o
Ġshow ing
Ġrad io
Ġdream s
Ġdi ary
Ġcarp et
Ġc ush
Ġban ana
ĠTr ue
ĠP olly
Ġ ed
ed y
Ġreg ular
Ġqu arrel
Ġn urse
Ġm ountain
Ġhum ble
Ġho pping
Ġgift ed
Ġgi ving
Ġfeather s
Ġcact us
Ġbor row
ĠS n
us ia
it her
h usia
b ook
Ġshe et
Ġrep air
Ġper m
Ġlive ly
Ġent husia
Ġdest ro
Ġc op
Ġa dd
st ri
ars h
Ġve st
Ġth read
Ġpar rot
Ġorgan ize
Ġm ask
Ġl ow
Ġfil m
Ġdel ight
Ġcush ion
Ġchar ming
Ġb ull
ĠS unny
v ator
un n
en ny
d om
G o
Ġsunf lower
Ġsh ade
Ġpop ular
Ġo stri
Ġmu ff
Ġmed ic
Ġmar ry
Ġhappen ing
Ġfr ame
Ġfor ward
Ġele vator
Ġa ut
y e
ul u
t en
op ter
ic opter
he t
Ġtra p
Ġstret ch
Ġs le
Ġpip e
Ġlaugh s
Ġju dge
Ġhel icopter
Ġhapp iness
Ġdel iver
Ġcr ane
Ġatt ract
ĠD an
p ack
om ob
omob ile
el ery
ce an
c ase
Ġst ream
Ġst ared
Ġshell s
Ġo cean
Ġh arsh
Ġe ars
Ġbook case
Ġaut omobile
Ġatt ic
st ic
sc ope
ro scope
n ger
Sara h
J ane
Ġyog urt
Ġs end
Ġrest less
Ġmic roscope
Ġh ay
Ġfall s
Ġcand le
Ġattract ive
ig ent
Ġunlo ck
Ġsucce ed
Ġre pe
Ġpe bble
Ġmus h
Ġmedic ine
Ġm ill
Ġit self
Ġfig ure
Ġansw ered
M um
J ill
Ġsu b
Ġstep s
Ġsp ell
Ġsn iff
Ġscoot er
Ġpir ate
Ġnote book
Ġenthusia stic
Ġdec ide
Ġd ust
Ġd ough
Ġcup board
Ġcompetit ive
ell igent
at ing
Ġwip ed
Ġsp end
Ġsh ort
Ġpot ato
Ġplay ful
Ġostri ch
Ġme adow
Ġm ild
Ġloud ly
Ġignor ant
Ġexc ite
Ġenjoy ing
Ġc elery
r n
lc an
Ġwe igh
Ġvo lcan
Ġtele ph
Ġt ag
Ġst aff
Ġsle pt
Ġsa us
Ġmush room
Ġmin er
Ġint elligent
Ġimp at
Ġed ge
Ġboun ced
ĠZ oom
ĠL ulu
is ion
ian o
at ure
as ing
M olly
Ġvolcan o
Ġtriang le
Ġteleph one
Ġsw itch
Ġsk irt
Ġsk ipped
Ġsc atter
Ġsay ing
Ġp iano
Ġm int
Ġla ser
Ġimpat ient
ĠBet ty
Ġtra ck
Ġset t
Ġpour ed
Ġp ony
Ġkn ife
Ġhard er
Ġfall ing
Ġcre ate
Ġcir cles
Ġc ity
Ġba se
F luffy
B illy
Ġyog a
Ġwis hes
Ġwhe at
Ġwa nder
Ġw ool
Ġtri pped
Ġstraw berry
Ġsmo ke
Ġs on
Ġpoint s
Ġkn ight
Ġdri ving
Ġdestro y
Ġdecor ate
Ġcri b
Ġclean ing
Ġbl in
Ġb in
ĠR ob
ĠR ex
or able
m b
h ip
b ul
ag ed
Ġtick et
Ġsnee ze
Ġlight s
Ġfriends hip
Ġe ventually
Ġbu ry
Ġbox es
Ġad orable
t i
het ti
ch air
bul ance
am ond
ag hetti
a ving
Ġwalk s
Ġve il
Ġv ine
Ġtra ins
Ġswe ater
Ġsub way
Ġsqu ash
Ġshr ink
Ġr ise
Ġnice ly
Ġn ation
Ġmod est
Ġl ed
Ġk ay
Ġam bulance
ĠB ow
w ork
en se
Ġslid es
Ġs ym
Ġpen gu
Ġpast ry
Ġo live
Ġmag az
Ġkn ot
Ġhand le
Ġdi amond
Ġarm chair
e on
Ġsh aking
Ġru bbed
Ġpo ke
Ġpig eon
Ġpa cked
Ġmo der
Ġkay ak
Ġf u
Ġc ord
bo l
a pped
G ive
Ġv ase
Ġpo le
Ġpe ach
Ġon ce
Ġbel t
Ġan ch
w as
was her
ut es
ri ll
op ard
az z
Ġt ap
Ġsym bol
Ġsupp ort
Ġreturn ed
Ġra ft
Ġquest ions
Ġph oto
Ġpe e
Ġmoder n
Ġmin utes
Ġgr owl
Ġdish washer
Ġcom pl
Ġar row
Ġanch or
Ġa x
ĠP ipp
ur ing
ur ch
sp it
spit al
p er
eter m
ac hes
Ġt ask
Ġsur f
Ġsold ier
Ġs uff
Ġpar ade
Ġm ay
Ġle opard
Ġho spital
Ġgather ed
Ġd eterm
Ġblack board
Ġax e
ĠL ee
ĠC l
ur b
ter n
W ell
Ġte ar
Ġst ack
Ġspe ak
Ġsp ear
Ġnap kin
Ġknow s
Ġhe dge
Ġe arth
Ġbe ep
Ġb ill
ut h
rm omet
j ect
Ġway s
Ġwall et
Ġvide o
Ġto rn
Ġthem selves
Ġt en
Ġroll ing
Ġn ature
Ġlift ed
Ġgo lf
Ġg asp
Ġfl ame
Ġdist urb
Ġcho se
Ġcelebr ate
we et
ir on
f a
ber ries
asp oon
B ye
Ġwe ep
Ġtow ers
Ġte aspoon
Ġsp aghetti
Ġrem ain
Ġmust ache
Ġmod el
Ġman aged
Ġf is
ĠE llie
rmomet er
ri c
ang u
Ġthin king
Ġsil ver
Ġsh ut
Ġre ward
Ġo il
Ġme at
Ġmagaz ine
Ġjump s
Ġch urch
ĠL ook
ke ep
Ġy et
Ġtr uth
Ġspill ed
Ġser ve
Ġre ver
Ġpat tern
Ġmeet ing
Ġli br
Ġl it
Ġher b
Ġfe st
Ġfast est
Ġen v
Ġdraw ings
ĠT ina
ĠHe re
ĠBird y
g en
amp oo
a it
?" .
Ġwhen ever
Ġwheel s
Ġth ose
Ġsweet ie
Ġres c
Ġre ce
Ġpre p
Ġno vel
Ġlo ad
Ġl ying
Ġjelly fish
Ġfest iv
Ġcompl ain
Ġcarry ing
Ġbrother s
ĠT eddy
ĠK im
unn el
t ime
ob y
l ter
ent ion
as er
Ġwin ter
Ġwas t
Ġt unnel
Ġso fa
Ġshe lter
Ġsh ampoo
Ġpol ish
Ġp it
Ġne at
Ġm ummy
Ġjewel ry
Ġhun g
Ġcost ume
Ġbeh ave
umb ers
ipp o
Ġwip e
Ġwh ip
Ġtruck s
Ġsc rew
Ġru bb
Ġpress ed
Ġpow der
Ġoff ered
Ġlibr ary
Ġhot el
Ġgig gled
Ġfestiv al
Ġbark ing
Ġall owed
Ġ er
ill ie
ig ator
et e
ar oo
ang aroo
, âĢĿ
Ġy aw
Ġscr atch
Ġs ize
Ġpo pped
Ġpick ing
Ġpengu in
Ġn umbers
Ġk angaroo
Ġin f
Ġey e
Ġce iling
Ġbill board
Ġar g
ĠG ive
Ġ iron
umb led
re ady
keep er
as on
!" .
Ġtra sh
Ġsn e
Ġsaus age
Ġl angu
Ġha nger
Ġcomplet e
Ġbar ber
ĠBu zzy
ump et
l ies
il ot
Ġv i
Ġtr umpet
Ġsho cked
Ġo ats
Ġle aving
Ġh ippo
Ġfl our
Ġear ly
Ġcook ing
Ġbase ball
Ġall igator
Ġal ready
ĠTo day
ĠBu zz
ail able
Jo e
Ġstop s
Ġstir red
Ġof ten
Ġo ak
Ġinc l
Ġimag ine
Ġfoot ball
Ġdoes n
Ġdeterm ined
ĠA re
us ie
p ar
Ġthe rmometer
Ġse par
Ġsaf ely
Ġres ist
Ġob ser
Ġo y
Ġmar ched
Ġlight ning
Ġju icy
Ġenv ious
Ġdes k
Ġd ive
Ġcomp ut
Ġchick ens
Ġblin ked
ĠF o
v ision
ess ie
ess ert
O w
Ġth u
Ġtele vision
Ġsug gest
Ġsu per
Ġpoint ing
Ġopen s
Ġmet al
Ġli z
Ġkno ck
Ġinv ite
Ġhat e
Ġfrog s
Ġexcite ment
Ġdiscover ed
Ġd essert
Ġav o
Ġav ailable
Ġagain st
ur ed
Y ay
Ġthu nder
Ġtall er
Ġspo ke
Ġr ake
Ġpast el
Ġme m
Ġm ath
Ġle ash
Ġl ime
Ġinv it
Ġh ook
Ġdist ant
Ġca ble
ĠM ar
ĠB inky
Ġ ow
us hed
op us
is on
ict ion
ic hes
h ic
ct opus
Ġve hic
Ġsuff er
Ġsandw iches
Ġsand box
Ġpro v
Ġpretend ing
Ġpract ice
Ġpo st
Ġo ctopus
Ġli c
Ġimp ro
Ġhur ry
Ġhang ing
Ġfree z
Ġdel ay
Ġche ck
Ġbutton s
in es
iction ary
ctor y
ation s
Ġtell ing
Ġpap ers
Ġmuff in
Ġmake up
Ġlic ense
Ġl end
Ġkind ness
Ġinf ant
Ġhappen s
Ġha ll
Ġfing ers
Ġfa ctory
Ġdisapp eared
Ġcup s
Ġcomput er
Ġc amp
Ġbo ots
bb on
Ġvi ol
Ġri bbon
Ġr ag
Ġpee ked
Ġpack age
Ġletter s
Ġgasp ed
Ġfu el
Ġch ain
Ġbl ouse
Ġany way
ĠEvery where
c ome
as is
ap on
a id
Ġviol in
Ġtw irl
Ġsw ung
Ġsound ed
Ġs ight
Ġrever se
Ġreal ised
Ġquest ion
Ġpain ter
Ġp ed
Ġon ion
Ġo asis
Ġmusic ian
Ġlisten ing
Ġl umber
Ġh ut
Ġg ear
Ġcri cket
Ġcabin et
Ġa dded
v ice
ud e
oph one
Ġwe apon
Ġval u
Ġte ase
Ġspl it
Ġs ent
Ġpe ar
Ġpa ir
Ġp un
Ġp ilot
Ġgrab s
Ġg rill
Ġex t
Ġen er
Ġclass room
ĠSn ow
ĠDo lly
s ity
qu it
at ely
an as
a ul
S ee
Ġw re
Ġvalu able
Ġt ub
Ġsearch ing
Ġsal t
Ġra ise
Ġma ze
Ġhole s
Ġf og
Ġe ither
Ġcl iff
Ġcher ries
Ġadm ire
ĠC arl
und ry
o ld
ipper y
d robe
bo dy
You r
R e
Ġwar drobe
Ġvehic le
Ġsl ippery
Ġread ing
Ġqu it
Ġoy ster
Ġold er
Ġmistake s
Ġm en
Ġla undry
Ġhe at
Ġgrow ing
Ġgo al
Ġdream ed
Ġban anas
ĠH oppy
le ased
ach t
A l
Ġy acht
Ġtight ly
Ġpo ked
Ġlot ion
Ġliz ard
Ġjoke s
Ġgu ard
Ġcow s
Ġcol our
Ġcall ing
Ġc ards
Ġbat he
Ġb et
ĠP ete
ĠB ig
Ġ x
ug ged
r ophone
r iger
riger ator
l ow
aur ant
Ġun ite
Ġsh one
Ġsepar ate
Ġrest aurant
Ġrespect ful
Ġmic rophone
Ġhapp ier
Ġh ours
Ġg az
Ġfreez er
Ġf ive
Ġer aser
Ġcool er
Ġc ur
Ġc udd
Ġad vice
ĠP eter
uc ture
s quit
squit o
ist ol
he ad
fe e
f fee
W ait
Ġw ine
Ġw ig
Ġstr ucture
Ġshout s
Ġref rigerator
Ġre fused
Ġp istol
Ġn avy
Ġmu le
Ġmo squito
Ġmed al
Ġhelp er
Ġg ir
Ġf re
Ġd ictionary
Ġclimb ing
Ġche ss
ĠU n
ĠR ed
x y
we b
urn it
urnit ure
ul b
pl ace
om ed
ob web
f ast
C h
Ġwast e
Ġspark ly
Ġsa ving
Ġru les
Ġpus hing
Ġpre vent
Ġplay ground
Ġpe ek
Ġlion s
Ġlaw n
Ġgra ndpa
Ġg ain
Ġf urniture
Ġext ra
Ġc obweb
Ġbreak fast
Ġblue berries
Ġb ulb
Ġar t
Ġab ove
vel ope
le nd
he lf
all ey
I s
Ġy ield
Ġtool s
Ġto oth
Ġst umbled
Ġsnee zed
Ġrid ing
Ġl id
Ġg ro
Ġfind s
Ġen velope
Ġcan e
Ġbutterf lies
Ġbooks helf
Ġbean s
w ards
r on
ol a
l a
ie st
ht ray
c u
O uch
Ġwre ck
Ġwe ight
Ġv alley
Ġstick ers
Ġpen ny
Ġob ject
Ġhold s
Ġhar bor
Ġener gy
Ġdist ance
Ġas htray
ĠW here
se um
bble s
Gra ndma
Ġw ife
Ġuniver se
Ġt ip
Ġsupp ly
Ġsp ir
Ġs igh
Ġperf ume
Ġp or
Ġnot ice
Ġmu seum
Ġglow ing
Ġfire place
Ġco ffee
Ġch ance
Ġavo c
Ġaccident ally
ĠHe l
as ses
Ġspir it
Ġsc ore
Ġs um
Ġr ush
Ġpor ch
Ġop era
Ġo k
Ġmat t
Ġli ves
Ġlangu age
Ġforg ave
Ġfle a
Ġent er
Ġcount ry
Ġca lend
Ġbreak s
ĠP ip
und ay
in ation
ar ry
ar m
a by
' d
Ġuniver sity
Ġun h
Ġu r
Ġsquirrel s
Ġspo il
Ġrh ino
Ġr ot
Ġprun e
Ġmiss ing
Ġmiss ile
Ġme owed
Ġle ak
Ġimag ined
Ġhop ing
Ġfo lder
Ġdra in
Ġcast les
Ġcalend ar
Ġbatter y
ĠT weet
ĠPipp in
ug g
u es
ar i
L ittle
E m
Ġswing ing
Ġmat ches
Ġinvit ation
Ġgi ven
Ġdis hes
Ġarg ue
Ġag ree
ĠS unday
ve al
og n
am ber
M ummy
Ġwhist led
Ġunh appy
Ġstret ched
Ġso il
Ġshake s
Ġro ared
Ġrec ogn
Ġrain ed
Ġneed le
Ġmess age
Ġmatt ress
Ġdis ag
Ġal arm
ĠM um
ĠM ike
ĠL ittle
ut or
st airs
ree ze
her o
c ast
Every one
Ġt utor
Ġsuper hero
Ġst om
Ġsh ield
Ġsand cast
Ġr ushed
Ġqu iz
Ġpo ison
Ġli p
Ġkne el
Ġgro cer
Ġg as
Ġf ought
Ġex pect
Ġco pper
Ġch asing
Ġbag s
ĠP at
ĠHel p
ĠB essie
sp ap
ri age
ar nt
W ill
N ext
Ġun pack
Ġsum mer
Ġstart s
Ġse ason
Ġreg ret
Ġplay er
Ġneigh b
Ġmonkey s
Ġminer al
Ġli e
Ġle arnt
Ġin s
Ġign ore
Ġch amber
Ġcap t
Ġbike s
Ġb ent
Ġal ive
ĠN ext
re s
m are
ie w
e er
Ġwindow s
Ġv iew
Ġstick er
Ġst able
Ġsp ade
Ġsett le
Ġpl ates
Ġobser ve
Ġkind s
Ġdan cer
Ġbee f
Ġb erry
Ġatt ach
Ġa w
ĠT ed
ĠAl ice
v et
th ank
ff ic
Ġwar ned
Ġtra il
Ġthe ater
Ġs ir
Ġrepe at
Ġre veal
Ġre ind
Ġra il
Ġpus hes
Ġpudd les
Ġnew spap
Ġim age
Ġhurt ing
Ġe vent
Ġcount er
Ġcho ice
Ġchair s
Ġbelong s
xy gen
oph y
ol og
nd or
el come
cer os
ac ed
a ked
Ġve ndor
Ġtr ophy
Ġtr ade
Ġso cks
Ġsandcast le
Ġrhino ceros
Ġresc ue
Ġreind eer
Ġp urse
Ġimpro ve
Ġgra nd
Ġfix ing
Ġfire man
Ġfav our
Ġcar ing
Ġbe g
Ġbath robe
Ġapp l
Ġap ron
Ġap olog
Ġany where
ĠFred dy
Ġz ipper
Ġsniff ed
Ġrem ove
Ġnam es
Ġc ape
Ġbre at
Ġblue berry
Ġa head
ĠO r
ĠMr s
ĠGra ce
Ġ âĢ
y th
yth m
uc et
t ed
n ight
ic er
ch an
Ġzoom ed
Ġwaff le
Ġstri p
Ġstick y
Ġsquee ze
Ġshow er
Ġshiver ing
Ġrh ythm
Ġprep are
Ġp alm
Ġolive s
Ġnewspap er
Ġhur ric
Ġfa ucet
Ġdelight ed
Ġchee k
Ġbo ot
ĠT oby
ĠS que
ĠMar ia
ĠC o
pl ay
ile t
ast ic
M r
D aisy
Ġto ilet
Ġsuggest ed
Ġsho vel
Ġrepl ace
Ġpig s
Ġperm it
Ġpass port
Ġp ages
Ġmar riage
Ġma ss
Ġlemon ade
Ġlean ed
Ġjun k
Ġj ail
Ġhum an
Ġfavour ite
Ġdream ing
Ġcard board
Ġbark s
Ġadm ired
ĠL illy
ĠEm ily
re nder
ra ge
i pping
ec ause
Ġv room
Ġtra ffic
Ġthrow s
Ġstu d
Ġsome where
Ġrubb er
Ġput ting
Ġp ort
Ġp al
Ġnight mare
Ġins ist
Ġhurric ane
Ġgra pe
Ġfrown ed
Ġfree ze
Ġfollow s
Ġfl ies
Ġfis her
Ġfeel ings
Ġdraw er
Ġdis play
Ġcou rage
Ġbright ly
Ġappl au
ĠF l
m ed
i ence
g l
cu ss
co nd
M ark
Be fore
Ġsurpr ises
Ġsp ort
Ġse cond
Ġsco ld
Ġproud ly
Ġp ur
Ġo xygen
Ġm all
Ġgre edy
Ġeas ily
Ġcar ed
Ġacorn s
ĠFr og
im ed
B uddy
Ġwe ather
Ġwaff les
Ġtorn ado
Ġthank s
Ġst airs
Ġst air
Ġprov ide
Ġincl ude
Ġfl apped
Ġdis cuss
Ġcolour ful
Ġcapt ain
Ġb other
Ġair port
ĠW ould
ĠS usie
ĠR u
mb re
he art
chan ic
ar ian
M imi
Ġu mbre
Ġtre m
Ġsad ly
Ġrad ish
Ġr ow
Ġpull s
Ġproblem s
Ġplan ned
Ġpe ars
Ġpal ace
Ġinc re
Ġfor t
Ġend ed
Ġcla w
Ġbright er
ĠU nder
ĠSque aky
ĠBu bbles
z or
or al
if i
ht er
Ġt ide
Ġsquee zed
Ġsn ap
Ġra zor
Ġpu p
Ġpl astic
Ġpart s
Ġme chanic
Ġlaug hter
Ġheart s
Ġflo at
Ġcross ed
Ġcher ry
Ġbump ed
ĠS pe
Ġ Y
uc t
ro d
le ton
ke leton
is ing
id ay
er ation
Al ice
Ġt ug
Ġstrug gle
Ġplan es
Ġgr ant
Ġencoura ged
Ġd are
Ġbe nd
ĠJ azz
ĠFin n
ĠB oun
z ag
in arian
ig zag
if orm
i k
gl asses
eter inarian
The se
Em ma
D id
Ġwr iting
Ġv eterinarian
Ġun iform
Ġtrust ed
Ġsun glasses
Ġsl ip
Ġroom s
Ġran ch
Ġpan ic
Ġoff er
Ġmove s
Ġmass age
Ġmar ried
Ġint rod
Ġgrocer y
Ġfollow ing
Ġelephant s
Ġdrop s
Ġd em
Ġbuck le
Ġblow ing
Ġavoc ado
ĠSh aring
ĠF ifi
ĠE nd
ĠB ee
Ġwin ning
Ġwar n
Ġunder ground
Ġumbre lla
Ġthrow ing
Ġsun set
Ġsplas hing
Ġspark led
Ġsl ap
Ġs keleton
Ġp leased
Ġp ine
Ġp age
Ġop eration
Ġnet work
Ġle ather
Ġhand ed
Ġfre sh
Ġfisher man
Ġexcited ly
Ġeat en
Ġdisapp ear
Ġbeaut y
Ġb le
ĠPe pper
ĠO w
ĠH ave
ĠFr oggy
ĠB aby
we en
ugg age
ree k
ik i
en ry
em e
. .
Ġsur render
Ġstri ke
Ġsoft ly
Ġsna il
Ġshould er
Ġra cing
Ġprun es
Ġp itch
Ġl uggage
Ġjog ged
Ġeven ing
Ġcand les
Ġc reek
Ġbri cks
Ġbri ck
Ġbet ween
Ġbelie ved
Ġbear s
ĠM e
ĠGra ndpa
ĠFo x
m em
in king
er o
em ember
R emy
A ll
Ġwis dom
Ġste el
Ġso ak
Ġsmell s
Ġremind ed
Ġmyster y
Ġimpress ed
Ġhead s
Ġexam ine
Ġdem and
Ġba king
ĠZ oomy
ĠZ ip
ĠS m
ĠL ola
ore s
om m
omm end
le x
l iday
Y uck
M oral
J enny
Ġsn ug
Ġrest ore
Ġrec ommend
Ġprint s
Ġkn ob
Ġhop es
Ġho liday
Ġexplor ed
Ġent ered
Ġd uring
Ġd ried
ĠT ony
ĠP aul
ĠM ummy
ĠD ave
qu ake
ind a
i um
em ent
at ched
af fe
a pping
W elcome
Ġtwirl ed
Ġt una
Ġstart ing
Ġs udden
Ġrabbit s
Ġpin ch
Ġme as
Ġlab el
Ġhill s
Ġgir affe
Ġearth quake
Ġdoor s
Ġcut ting
Ġch ores
Ġbreat he
Ġboun cing
Ġble ed
Ġbel ow
ĠSpe edy
ĠS ee
ĠR o
Ġ V
r ise
n oon
ch oo
N ot
Ġsweet heart
Ġsun rise
Ġshr ugged
Ġs imp
Ġrece ive
Ġpl aced
Ġped al
Ġpeanut s
Ġpa id
Ġop in
Ġmark s
Ġlet ting
Ġg ym
Ġfl ap
Ġde ar
Ġcreature s
Ġcont ent
Ġclaw s
Ġburn ed
Ġbr us
Ġafter noon
s ed
itten s
S h
L eo
Ġv ac
Ġtrem ble
Ġtra ve
Ġsol ved
Ġsk ill
Ġshout ing
Ġshop keeper
Ġpun ish
Ġencoura ge
Ġcoat s
up s
que st
l ook
Q u
M ary
L isa
F red
A nn
Ġwor se
Ġsnow ball
Ġslid ing
Ġre quest
Ġrain ing
Ġo h
Ġnew s
Ġinsist ed
Ġh on
Ġfirework s
Ġfall en
Ġcla pping
Ġchew ed
ĠWh o
ĠUn cle
ĠM illie
ĠJohn ny
sh ip
ad ium
ĠâĢ ĵ
Ġst adium
Ġsign s
Ġsc oop
Ġqu ite
Ġmail man
Ġl uck
Ġin st
Ġhad n
Ġgig gle
Ġdecor ations
Ġche cked
Ġcatch ing
Ġbit es
Ġbed s
ĠRob by
ĠO live
ust y
urt her
la imed
an na
W oof
B ella
Ġwhist ling
Ġspray ed
Ġpull ing
Ġno body
Ġmy self
Ġm ention
Ġher s
Ġgrowl ed
Ġgift s
Ġf urther
Ġeager ly
Ġdeep er
ĠJ ames
ĠI s
ĠG r
ĠD ino
sp eci
speci ally
sh ion
os ed
i ppy
Ġworm s
Ġtreasure s
Ġstom ach
Ġspr ink
Ġre lease
Ġre aches
Ġmin ute
Ġkeep ing
Ġfa shion
Ġexc laimed
Ġe specially
Ġch irp
Ġbrus hes
Ġbatter ies
ĠM ittens
ĠL inda
ĠB op
un ately
st ers
r ight
look ing
g ling
a bbit
Dad dy
Ġvac ation
Ġunderstand ing
Ġstre ng
Ġstr ang
Ġste am
Ġshin ed
Ġpray ed
Ġplay s
Ġpile s
Ġpe aches
Ġeat s
Ġbu ried
Ġbr ings
Ġapplau d
Ġall ow
ĠL e
ĠG ood
ĠCl ara
y er
l vet
arl ie
Ġz ipped
Ġyaw ned
Ġwhisp er
Ġweep ing
Ġwe b
Ġwa ving
Ġve lvet
Ġvan ished
Ġsupp osed
Ġstreng th
Ġsimp le
Ġscold ed
Ġro ot
Ġrest ing
Ġquiet ly
Ġpup il
Ġpaint s
Ġlaw yer
Ġl ily
Ġgaz ed
Ġfold ed
Ġcr ow
Ġbu zz
Ġback pack
ĠS k
ĠL ucky
ĠE ventually
ĠA lex
se ct
red ient
re at
ott en
ing redient
ht ub
g ie
er c
To day
Ġy ucky
Ġwag s
Ġup stairs
Ġto ur
Ġth umb
Ġstrang ers
Ġsaf ari
Ġrecogn ize
Ġneighb our
Ġland s
Ġhit s
Ġfr ost
Ġex erc
Ġdress ed
Ġdig ging
Ġcra sh
Ġcart oon
Ġboun cy
Ġbat htub
Ġag o
Ġ ingredient
xt ure
x u
u xu
irr ing
e ep
an ny
Ġyaw n
Ġwe st
Ġspark le
Ġsail ing
Ġnow here
Ġmen u
Ġl ined
Ġkneel ed
Ġincre ase
Ġfrost ing
Ġfl ood
Ġex it
Ġcake s
Ġbl ink
Ġbad ly
Ġb reeze
Ġatt ention
Ġa ch
ĠEvery thing
ĠE lly
ĠE l
res ses
or ies
i ved
Y um
Ġspot s
Ġsne ak
Ġsna pped
Ġrelax ed
Ġqu ack
Ġl uxu
Ġinst r
Ġingredient s
Ġimag ination
Ġhis t
Ġguess ed
Ġfire f
Ġclose ly
Ġcall s
Ġba k
ĠWhen ever
ĠM andy
ĠK iki
ist le
is ses
ick y
ck y
ark y
ap a
W ith
Re ady
O r
' ve
Ġwe ighed
Ġtra cks
Ġswam p
Ġstudy ing
Ġstra ight
Ġst irring
Ġset ting
Ġscream s
Ġri pped
Ġpe arl
Ġp ad
Ġmem ory
Ġman age
Ġking dom
Ġk isses
Ġin sect
Ġhist ory
Ġhe el
Ġeas ier
Ġdestroy ed
Ġbird c
Ġapp ro
ĠZ ara
ĠDan ny
ĠAnn ie
ut ter
ster day
oph ie
i b
fort unately
e sterday
a b
Ġwas hing
Ġw ob
Ġur ge
Ġunlo cked
Ġto ng
Ġspace ship
Ġsnee z
Ġsh ot
Ġsee ing
Ġpr op
Ġmelt ed
Ġfr o
Ġfl at
Ġe qu
Ġbirdc age
Ġbal an
ĠE ach
ĠB umpy
Ġ Ċ
ues day
n ie
m m
m en
a ved
Ġstrug gled
Ġpret t
Ġkn own
Ġflo ated
Ġe ast
Ġd resses
Ġby e
Ġbucket s
Ġb ur
Ġap art
ĠT uesday
ĠS andy
ĠRu by
ĠJoe y
ĠH o
w alk
uc ked
iz ing
it es
ip ment
ig i
ect ure
b ig
B ecause
Ġtwist ed
Ġtomato es
Ġstr o
Ġspoon s
Ġsnug gled
Ġseat s
Ġrece ived
Ġrec or
Ġpin ched
Ġmem ories
Ġluxu ry
Ġl ecture
Ġintrod uce
Ġin ch
Ġide as
Ġforg otten
Ġexp er
Ġcra s
Ġclimb s
Ġapp re
Ġadm ir
ĠBoun ce
og o
o ved
o e
iz es
il ies
he st
d am
aw s
a h
Mom o
Me ow
Ġw oof
Ġswim s
Ġsit s
Ġro ots
Ġmix ing
Ġmelt ing
Ġmeas ured
Ġli cks
Ġkick ing
Ġdisag ree
Ġcon f
Ġcol ours
Ġbow ed
Ġbleed ing
Ġbl ood
Ġappre c
Ġapprec i
ĠSm ith
ĠH enry
is ty
ig gly
ic ing
h ood
c cer
Ġwater ed
Ġwarm th
Ġtw isty
Ġtw ink
Ġto e
Ġteach ing
Ġsur round
Ġstamp s
Ġsort s
Ġso re
Ġside walk
Ġsett led
Ġs ince
Ġpo ppy
Ġplant ed
Ġoff icer
Ġmon sters
Ġh i
Ġflo ating
Ġequ ipment
Ġdrink s
Ġdad s
Ġcollect ion
Ġba ked
Ġatt ached
ĠSt ar
ĠR abbit
ĠP r
ĠD og
ĠB ill
p lease
or ge
k ins
ip s
g es
en a
e orge
b ie
ake s
ad ed
ache l
ac ked
S p
B u
B lue
Ġso ccer
Ġskill s
Ġshe d
Ġrest ed
Ġra ised
Ġr ul
Ġpuzz les
Ġp ies
Ġmouth s
Ġl ines
Ġignor ed
Ġhead ed
Ġgold en
Ġexerc ise
Ġcur led
Ġcand ies
Ġbrave ly
Ġapp ear
ĠCo co
ĠBe ep
r ing
n e
iss ion
i en
ct ion
big ail
Ġz igzag
Ġwig gle
Ġwa ist
Ġtong ue
Ġsucceed ed
Ġstud ied
Ġse w
Ġscatter ed
Ġran g
Ġpotato es
Ġplay time
Ġpir ates
Ġopin ion
Ġmu dd
Ġjewel s
Ġj azz
Ġis n
Ġfood s
Ġd aisy
Ġbre aking
Ġbo om
ĠWh istle
ĠThe se
ĠG igi
ĠFin ny
ĠD r
o h
ind y
ie ve
ent s
b ies
at ty
a les
Qu ack
O k
E ventually
And y
Ġwor th
Ġwar ning
Ġwait s
Ġwag ging
Ġturn ing
Ġtra pped
Ġto night
Ġst itch
Ġsp it
Ġs ix
Ġres p
Ġpri ce
Ġperm ission
Ġp ra
Ġopen ing
Ġn one
Ġmudd y
Ġme ow
Ġmarch ing
Ġlemon s
Ġhur ried
Ġhis sed
Ġhero es
Ġchew ing
Ġcelebr ated
Ġbeh aved
Ġbeg ged
Ġb ang
ĠT w
ĠJ ul
ĠG ogo
um ble
os ie
omet hing
o ves
ict ory
d o
d ing
M mm
Ġwin ner
Ġwelc omed
Ġvoice s
Ġso ared
Ġsho ck
Ġscr u
Ġscr atched
Ġsc aring
Ġs izes
Ġrul er
Ġpol ar
Ġpet als
Ġour s
Ġornament s
Ġfe ars
Ġcollect ed
Ġal right
Ġaccept ed
ĠP apa
ĠL ike
ĠL ater
y ear
un e
um es
r r
omed ay
mb ling
in ter
il o
g o
b oo
ay s
R emember
H a
Ġwat ches
Ġvis ited
Ġvan ish
Ġv ictory
Ġtre mbling
Ġtheir s
Ġtall est
Ġsp ike
Ġsort ed
Ġscru bbed
Ġs omeday
Ġpur red
Ġpr ide
Ġpolice man
Ġpa used
Ġmov ies
Ġminer als
Ġmention ed
Ġh itting
Ġfa ult
Ġdr inking
Ġdisag re
Ġcost umes
Ġba bies
Ġb ank
Ġapolog ized
Ġansw ers
Ġair pl
Ġadmir ing
ĠT oto
ĠOw l
ĠK ing
ĠGo d
ĠC ar
ĠB ug
ĠB ree
s ing
p r
p ed
or ed
op s
m other
et ch
b ers
ang es
P eter
D ucky
Ġwood en
Ġw ins
Ġw ink
Ġt ucked
Ġsprink les
Ġpe el
Ġpattern s
Ġm ister
Ġlet s
Ġl ung
Ġgl oves
Ġfis hing
Ġd ire
Ġcu b
Ġappro ached
Ġact ions
Ġact ed
ĠSt e
ĠSnow y
ĠS u
ĠR oo
ĠR atty
ĠP enny
ĠH appy
ĠFo llow
ist en
ig gy
et y
av id
B ird
" ,
!" ,
Ġz ero
Ġyell ing
Ġto es
Ġteac hes
Ġte asing
Ġtast es
Ġsuit s
Ġstr uck
Ġsteal ing
Ġshould n
Ġser ved
Ġsell ing
Ġru in
Ġrock ing
Ġown ed
Ġo at
Ġmus cles
Ġmat ched
Ġm ice
Ġherb s
Ġflag s
Ġfiref ight
Ġfam ilies
Ġf ed
Ġem er
Ġdes er
Ġdecor ated
Ġcudd led
Ġcre pt
Ġcollect ing
ĠZ oe
ĠW ally
ĠSome one
ĠS omething
ĠR achel
ĠN ot
ĠL iz
ĠCh arlie
ĠB oth
z en
ss ible
s on
s it
r s
ot os
h ind
em bers
ct ly
all ow
S ometimes
Bob by
' .
Ġzoom ing
Ġwork er
Ġwhere ver
Ġur ged
Ġticket s
Ġsor ting
Ġsigh s
Ġrid es
Ġreveal ed
Ġremain ed
Ġrem embers
Ġph otos
Ġpencil s
Ġped als
Ġpast ries
Ġn apping
Ġmuff ins
Ġmot ion
Ġmoment s
Ġlearn s
Ġkey s
Ġjog ging
Ġgrand mother
Ġfro zen
Ġfl av
Ġdisturb ed
Ġcr unch
Ġcon es
Ġcomfort ed
Ġblanket s
Ġbe at
Ġappreci ate
ĠT illy
ĠS ophie
ĠR e
ĠP aws
ĠK ate
ĠJ on
ĠB o
ĠB l
z ie
ve st
vest ig
urpr ise
med i
medi ately
is hing
ant ly
anna h
a bby
Re ally
D ave
Ġwander ed
Ġsplas hes
Ġsk ipping
Ġsecret s
Ġsaf ety
Ġsad ness
Ġri p
Ġres ult
Ġprop er
Ġpresent s
Ġpol ished
Ġpet ted
Ġperfect ly
Ġlead er
Ġinstr uct
Ġin vestig
Ġhapp iest
Ġgirl s
Ġcreat ed
Ġca ut
ĠW iggly
ĠR osie
ĠPipp a
ĠBe fore
i ers
gen cy
c oon
ap ed
U h
S usie
P aul
J en
Ġw ed
Ġtwig s
Ġtrave led
Ġte xture
Ġstr ings
Ġspray ing
Ġsold iers
Ġso aked
Ġsc ales
Ġs ip
Ġs ings
Ġri pe
Ġrepe ated
Ġpun ished
Ġprotect ing
Ġpo king
Ġord ered
Ġor anges
Ġmountain s
Ġmitten s
Ġmarble s
Ġland scape
Ġlady b
Ġkn elt
Ġkeep s
Ġk itty
Ġjo king
Ġhor ses
Ġfield s
Ġexper ience
Ġdisagre ed
Ġd ared
Ġcrunch y
Ġcras hed
Ġcont est
Ġbuild ings
Ġbe amed
Ġan n
Ġamaz ement
Ġagre es
ĠSp ark
ĠS c
ĠHo ot
ĠAl ways
os ity
n ce
ic orn
be y
at ie
Z oom
W ould
S urprise
F irst
! '
Ġwork s
Ġwed ding
Ġw ound
Ġun icorn
Ġtrip s
Ġth ird
Ġt im
Ġsweet ies
Ġsl ice
Ġsl apped
Ġshiver ed
Ġseem s
Ġresp on
Ġrem oved
Ġpra ised
Ġpig gy
Ġpe as
Ġo bey
Ġn icer
Ġlollipop s
Ġli ck
Ġla id
Ġinvestig ate
Ġinstruct ions
Ġimport ance
Ġhe sit
Ġgrant ed
Ġgr in
Ġglow ed
Ġgl itter
Ġemer gency
Ġdiffere nce
Ġd ots
Ġd ied
Ġcudd le
Ġcomp any
Ġchase s
Ġcan s
Ġbott les
Ġblow s
Ġairpl ane
Ġact ing
Ġa we
ĠS un
ĠH ippy
ĠC he
ĠA n
ĠA bigail
ur ry
uck ily
ou ch
low ly
it ies
ish y
h ouse
er n
ag ers
U n
T r
M iss
B oo
A h
Ġwonder s
Ġvill agers
Ġtri cked
Ġsurround ed
Ġstuff ed
Ġsmile y
Ġring ing
Ġr ings
Ġprotect ed
Ġpe a
Ġm ama
Ġhon k
Ġhig hest
Ġhe n
Ġf etch
Ġdraw s
Ġdog gy
Ġcat ches
Ġburn ing
Ġbeg in
Ġbed time
Ġare a
ĠW ater
ĠLe ave
ĠL izzy
ĠH arry
ĠBug gy
v a
ire n
id ed
h o
g gy
c ious
aff es
T iny
P oppy
J ake
Good bye
Ġw iz
Ġsw oop
Ġste ady
Ġsneez ing
Ġsmall est
Ġsho pping
Ġshadow s
Ġs iren
Ġribbon s
Ġrequest ed
Ġpow ers
Ġnap s
Ġmus cle
Ġlip s
Ġim mediately
Ġhard ly
Ġgir affes
Ġfl utter
Ġex pected
Ġdown stairs
Ġdecid es
Ġcuri osity
Ġcaut ious
Ġbro om
Ġbalan cing
Ġact ually
ĠSt op
ĠRo cky
ĠO lly
ĠIt s
ĠEvery day
ĠD izzy
ĠC r
ĠA dam
sc in
ing o
id es
i ving
are n
ag gie
ab el
Y ummy
O llie
H ave
E lla
A n
A choo
Ġwr ist
Ġwiz ard
Ġvide os
Ġtail s
Ġsun light
Ġst aring
Ġsne aky
Ġsees aw
Ġrubb ing
Ġpre cious
Ġpillow s
Ġp ause
Ġorgan izing
Ġne ither
Ġlo ving
Ġhorn s
Ġhop s
Ġgun s
Ġgaz e
Ġgather ing
Ġg ust
Ġfold ing
Ġfa scin
Ġfa ced
Ġf art
Ġdust y
Ġdi ving
Ġdes ert
Ġcrab s
Ġbring ing
Ġann oy
Ġach ieve
ĠO ut
ĠM ilo
ĠM illy
ĠGr umpy
ĠE arth
ĠD avid
u se
st ep
izz ie
h a
f it
bo at
bb ing
at ches
R ex
M andy
D uring
Ġwr ites
Ġwin ked
Ġwig gled
Ġwere n
Ġsil ence
Ġru le
Ġrecor ded
Ġread s
Ġre leased
Ġprint ed
Ġpet s
Ġp le
Ġnail s
Ġcraw ling
Ġbak er
ĠSk ip
ĠR olly
ĠR ay
ĠP o
ĠM oon
ĠL ou
ĠK ip
ĠG eorge
ĠF irst
ĠBe aky
ĠB ecause
w k
uck led
om ing
n ect
low ers
lo e
l ier
i very
ang led
a ctly
Wh iskers
R ose
Gra ndpa
B et
Ġzoo keeper
Ġun ited
Ġtw in
Ġtrave ll
Ġtim er
Ġtal ent
Ġswe at
Ġstrug gling
Ġstick ing
Ġstay s
Ġst y
Ġst are
Ġso aring
Ġsne aked
Ġsister s
Ġshirt s
Ġscream ing
Ġs ides
Ġrecogn ized
Ġproper ly
Ġprep ared
Ġpract icing
Ġpr inter
Ġpe ered
Ġpand as
Ġpa j
Ġout fit
Ġmatch ing
Ġman e
Ġkind ly
Ġgot ten
Ġcont ain
Ġcon nect
Ġche f
Ġbump s
Ġbra in
Ġbe side
Ġbe lly
Ġb unch
Ġb ones
Ġal ien
ĠT ia
ĠPr ince
ĠP inky
ĠK eep
ĠHow ever
ĠFr ank
ĠF riend
ĠDan i
ĠD id
ĠCat ty
ĠBe hind
ut ure
unn ies
um m
ro l
pl ash
or a
o llow
ll en
is hes
in nie
f ied
el vet
ara way
am as
ac ob
a ster
R o
M illie
J ames
H appy
F ollow
E x
D ays
D an
Ġyou nger
Ġy esterday
Ġtouch ing
Ġtouc hes
Ġteam work
Ġstay ing
Ġspend ing
Ġscoop ed
Ġsaf er
Ġro pes
Ġro cked
Ġreal ize
Ġprett iest
Ġpour ing
Ġpoem s
Ġno on
Ġm es
Ġm erry
Ġknight s
Ġhug ging
Ġheal ed
Ġhat ed
Ġf uture
Ġf araway
Ġear lier
Ġdel ivery
Ġcont rol
Ġcle aring
Ġch uckled
Ġcautious ly
Ġbra very
Ġba re
Ġb unnies
ĠSk y
ĠR emember
ĠN ick
ĠM ouse
ĠL ove
pp ers
l er
l ay
id ges
ib i
gu ing
f y
c us
ath y
at t
Sam my
R ob
L ola
H old
B ad
Ġyou th
Ġto ss
Ġswoop ed
Ġsuffer ing
Ġshap ed
Ġro ars
Ġrespon s
Ġrep ly
Ġremember ing
Ġpump kins
Ġplanet s
Ġpart ies
Ġpaj amas
Ġpad d
Ġour selves
Ġon wards
Ġnovel s
Ġladyb ug
Ġhelmet s
Ġex actly
Ġe sc
Ġe ff
Ġdec ision
Ġcut s
Ġcurtain s
Ġcr umb
Ġcom fy
Ġbr idges
Ġbit ing
Ġb oo
Ġar guing
Ġany time
ĠV elvet
ĠT ree
ĠSte ve
ĠS orry
ĠPe anut
ĠBl ink
âĢĿ .
ue st
ne ath
joy ed
itt ed
ir m
in ing
id s
ess a
br ush
av i
all en
S andy
R u
N ina
C l
.. ."
Ġwire s
Ġwant ing
Ġtowel s
Ġto re
Ġtick le
Ġstraw berries
Ġst ing
Ġspark ling
Ġsnowball s
Ġrem ote
Ġref use
Ġref res
Ġrain y
Ġr ising
Ġprom ises
Ġpol ishing
Ġperform ance
Ġpe ppers
Ġpatient ly
Ġpaint ings
Ġover joyed
Ġneighbor hood
Ġmis ses
Ġlog s
Ġli ed
Ġlean ing
Ġhid er
Ġha wk
Ġguess ing
Ġgen ie
Ġgain ed
Ġg uest
Ġfair ies
Ġf irm
Ġdeser ve
Ġdemand ed
Ġdark ness
Ġcur ly
Ġcrumb s
Ġcomplet ed
Ġchirp ed
Ġch allen
Ġbowl s
Ġbe ard
Ġb umpy
Ġapolog ize
Ġagre ement
ĠZ igzag
ĠZ iggy
ĠUn fortunately
ĠTh ose
ĠT urtle
ĠS lowly
ĠPe ggy
ĠO ur
ĠMiss y
ĠJohn son
ĠEm my
ĠCr usty
ĠBe ing
ĠA m
ĠA bby
Ġ Once
ust ed
uc ed
qu ence
pr il
oy s
n es
n ers
is dom
id ing
h og
es ome
e ah
Thank s
Mr s
L una
Ch irpy
Ġwho se
Ġwhat ever
Ġweek s
Ġwe ars
Ġwake s
Ġvisit ing
Ġtw ice
Ġtire s
Ġth rill
Ġt ugged
Ġt angled
Ġsurpr ising
Ġsuperhero es
Ġstro ked
Ġsn atched
Ġsl im
Ġroll s
Ġrel uct
Ġrain co
Ġra c
Ġpastel s
Ġpass ing
Ġpar ked
Ġm er
Ġlisten s
Ġgre y
Ġgood night
Ġfin s
Ġfascin ated
Ġexplore rs
Ġd ent
Ġcontin ue
Ġcomplain ing
Ġcobweb s
Ġclap s
Ġcam el
Ġbra nd
Ġbak ery
Ġbad ge
Ġaw esome
Ġad ult
Ġac com
ĠZ ero
ĠW ink
ĠT erry
ĠSt itch
ĠP ut
ĠL izzie
ĠL ion
ĠL ena
ĠK atie
ĠK aren
ĠH old
ĠGood bye
ĠG low
ĠG et
ĠBoun cy
ĠB y
ĠB ibi
ĠA unt
Ġ X
se quence
sequence s
ri ous
qu irrel
p ite
ord an
nes day
l ict
he e
ed nesday
d ie
ct ions
ay la
arth a
ant a
Y eah
R un
G reat
B unny
Ġwip es
Ġth reat
Ġsty le
Ġstart led
Ġst ern
Ġsquare s
Ġspark les
Ġslim y
Ġshould ers
Ġshoot ing
Ġshe lves
Ġseek er
Ġscr atches
Ġsaus ages
Ġrub s
Ġreluct antly
Ġquarrel ing
Ġpro ject
Ġprett ier
Ġpocket s
Ġpo ssible
Ġplay room
Ġpen s
Ġpat ted
Ġpat ience
Ġpack ing
Ġp out
Ġnation s
Ġmiss ion
Ġloop s
Ġlead ing
Ġlangu ages
Ġkeep er
Ġhope ful
Ġforg iving
Ġfire men
Ġeff ort
Ġe ight
Ġdi ved
Ġdest ination
Ġd ot
Ġconf lict
Ġcon sequences
Ġclose s
Ġcheer ing
Ġcalm ed
Ġbuzz ing
Ġblin king
Ġbec oming
Ġaw ake
Ġarg ued
ĠW isdom
ĠW ednesday
ĠRob bie
ĠO t
ĠMe g
ĠJul ie
ĠJ e
ĠH enny
ĠGr anny
ĠG reen
ĠF ire
ĠCh icky
ĠBet sy
ĠB oo
ĠB arky
Ġ Ġ
w o
udd les
ub u
u ing
t uce
ri ver
r ist
r ance
og a
n o
iss ue
he llo
g ers
e ed
d river
b ric
ad s
ad os
W atch
M ike
L uckily
John ny
H enry
F r
E w
C at
B ear
Ann ie
Ġwr itten
Ġwe ed
Ġwater ing
Ġwast ed
Ġw ow
Ġthrill ed
Ġth orn
Ġtalk s
Ġt issue
Ġstri pes
Ġst ain
Ġspr ang
Ġshop s
Ġscrew driver
Ġsat is
Ġsail boat
Ġroad s
Ġro aring
Ġrainco at
Ġrainbow s
Ġrad ishes
Ġperm itted
Ġperform ed
Ġpebble s
Ġobser ved
Ġnot es
Ġma ster
Ġload ed
Ġlet tuce
Ġkitten s
Ġkick s
Ġit em
Ġimpro ved
Ġhesit ated
Ġgu y
Ġgrowl s
Ġgrin ned
Ġgra bbing
Ġgo als
Ġgig gling
Ġfre ed
Ġfa bric
Ġex ha
Ġesc aped
Ġdragon s
Ġdeliver ed
Ġd ipped
Ġcre ation
Ġc ough
Ġbare ly
Ġavoc ados
Ġaccom pl
ĠY oga
ĠTw ink
ĠSu zie
ĠSp ring
ĠM att
ĠL o
ĠH ope
ĠG ary
ĠG abby
ĠFriend s
ĠFl ora
ĠF or
ĠDo do
ĠC uddles
ĠB ye
w h
ugg les
u ly
p arent
n ow
itc hes
in ty
ich a
icha el
f all
ent er
ak er
ad ly
ac y
Th ose
St ay
P e
O ut
M ar
Bu zz
. '
Ġwork ers
Ġweigh s
Ġval ued
Ġv owed
Ġv et
Ġunder neath
Ġun s
Ġun f
Ġtwink le
Ġtow ard
Ġto aster
Ġsurf ace
Ġsnake s
Ġsl am
Ġshr ug
Ġseason s
Ġsc ra
Ġsc ored
Ġs way
Ġro bb
Ġrespons ible
Ġresc ued
Ġrefres hed
Ġre ason
Ġpupil s
Ġpot s
Ġpo inty
Ġpee king
Ġp ec
Ġopin ions
Ġneighb ors
Ġn ood
Ġmes mer
Ġmer ma
Ġmatter s
Ġmailbox es
Ġlung s
Ġlabel s
Ġinv iting
Ġhome work
Ġhelp ers
Ġhedge hog
Ġg ears
Ġforget ting
Ġexha usted
Ġexam ined
Ġent rance
Ġe lf
Ġdri ves
Ġdolph ins
Ġdiscover ing
Ġdire ctions
Ġde f
Ġdark er
Ġd am
Ġcra cked
Ġcover s
Ġcom m
Ġchallen ge
Ġcartoon s
Ġbr u
Ġbe ads
Ġback wards
Ġapplau ded
ĠZ ippy
ĠW oof
ĠT essa
ĠS quirrel
ĠRe g
ĠJ acob
ĠEl s
ĠD ara
ĠChe w
ĠB ingo
Ġ 1
us ing
u zz
step s
se ek
ro at
r ink
pp ies
pa ired
ott ing
op sy
l iver
iv ity
ion a
ie ce
i xture
h i
g les
ep t
ent y
ent ly
ct ar
ch y
c her
b ut
a i
W hee
V room
Tr ue
T ony
T oby
Sp ike
S ome
Ro ar
P olly
M ouse
M illy
L e
Gra ce
Do lly
D oggy
D og
Ġwob bled
Ġwater fall
Ġtr uly
Ġthought s
Ġth roat
Ġtest ing
Ġt une
Ġsw ept
Ġsw all
Ġstom ped
Ġste ep
Ġst umble
Ġspit s
Ġsneez es
Ġre paired
Ġrac coon
Ġpur r
Ġper ched
Ġpath s
Ġpass en
Ġo pp
Ġnose s
Ġnood les
Ġneighbour hood
Ġne ctar
Ġnap kins
Ġm ixture
Ġla p
Ġintrod uced
Ġhand ful
Ġgrowl ing
Ġgrow s
Ġgrand parent
Ġfoot steps
Ġfirefight er
Ġfill ing
Ġencoura ging
Ġdisco very
Ġcrack ers
Ġc ause
Ġbur st
Ġblock ing
Ġbec omes
Ġbalan ced
Ġarri ve
Ġannoy ed
ĠW atch
ĠT una
ĠS anta
ĠReg ret
ĠR on
ĠR ich
ĠL ime
ĠL aser
ĠL arry
ĠIt chy
ĠH ug
ĠH annah
ĠD uck
ĠBig gie
ĠB ubu
ĠB eth
ĠA pril
Ġ Quack
w orm
umm ies
rr r
o key
l inky
ir i
ipp ers
id ers
d ies
bb led
ath an
and a
am ie
T ina
Sh h
Qu ick
P ut
O ops
Jo ey
H arry
F ine
Ch arlie
Bet ty
Ben ny
Be ep
Ġzebra s
Ġwob b
Ġv ines
Ġuse s
Ġun p
Ġtwink ling
Ġtriang les
Ġtravell ed
Ġtick led
Ġtem pt
Ġtable s
Ġt ies
Ġsweet s
Ġsweat ers
Ġswall owed
Ġstretch ing
Ġstreet s
Ġsto le
Ġspeed ing
Ġsp iders
Ġsnow men
Ġslip s
Ġsecond s
Ġscrew s
Ġsal ty
Ġs ense
Ġrocket s
Ġrepl aced
Ġrecord ing
Ġreach ing
Ġran ger
Ġpan c
Ġpaint brush
Ġpadd led
Ġmeas uring
Ġmach ines
Ġm aker
Ġloo se
Ġlo sing
Ġl ower
Ġkne es
Ġincl ud
Ġhoop s
Ġhon ked
Ġgem s
Ġg ri
Ġfu zzy
Ġflav or
Ġfl as
Ġfl ames
Ġfirefight ers
Ġfilm s
Ġfile s
Ġfart her
Ġfa iled
Ġent ire
Ġdecor ating
Ġcudd ly
Ġcir cus
Ġch at
Ġch arge
Ġbuzz ed
Ġbra ver
Ġbloom ing
Ġbloom ed
Ġb ars
Ġart ist
ĠY esterday
ĠU p
ĠTr ust
ĠT hing
ĠT ara
ĠSo ap
ĠS plash
ĠR iri
ĠR ain
ĠOt her
ĠM innie
ĠM ay
ĠM artha
ĠM aggie
ĠJe ff
ĠJ ordan
ĠH olly
ĠEl i
ĠDo ctor
ĠCh rist
ĠA nt
v in
ur ried
umb ling
u rious
u ded
th s
ri an
oph ia
on ies
ol ine
o dy
n ies
le ction
k y
ind r
ho pper
f orm
ert ain
er ing
el ia
e al
cu se
c l
b ell
ater i
ag ull
Un fortunately
S illy
P at
O ur
M ine
Ex cuse
E llie
D anny
B ow
B inky
Ġyour selves
Ġwor ries
Ġwip ing
Ġwander ing
Ġuns ure
Ġunp acked
Ġunderstand s
Ġtrick y
Ġtr aded
Ġteacher s
Ġtask s
Ġt ummies
Ġt ipped
Ġt in
Ġsw irl
Ġsp ong
Ġso bbed
Ġsniff s
Ġsight s
Ġshr inking
Ġse agull
Ġsc urried
Ġra indr
Ġprov ided
Ġpray er
Ġpout ed
Ġpad dle
Ġp onies
Ġobject s
Ġmerma id
Ġmagnet s
Ġm ateri
Ġload ing
Ġle ast
Ġjob s
Ġjo ked
Ġitch y
Ġind eed
Ġinclud ing
Ġincl uded
Ġimag ining
Ġimag es
Ġhe av
Ġhe aring
Ġgrass hopper
Ġgrandparent s
Ġfl ipped
Ġfit s
Ġfig ured
Ġfeed ing
Ġfe ast
Ġf aded
Ġexpl o
Ġeag le
Ġdraw ers
Ġdoctor s
Ġdire ction
Ġdent ist
Ġdelay ed
Ġde al
Ġcrow d
Ġcount s
Ġcop y
Ġcheek s
Ġch ips
Ġcamp ing
Ġc oop
Ġc enter
Ġbu dge
Ġadd ing
Ġa ff
ĠZ ipper
ĠY outh
ĠW elcome
ĠW ait
ĠT y
ĠSu zy
ĠSt ay
ĠSn uggles
ĠSn ap
ĠSh ake
ĠSc ale
ĠS ure
ĠS adly
ĠN ina
ĠN ana
ĠL isten
ĠL illie
ĠJul iet
ĠGra nd
ĠCh loe
ĠC oby
ĠC athy
ĠC able
v al
us an
ret ty
ret ch
re ver
or ds
on nie
on na
ob ody
o ke
o ed
m s
led ge
le an
l ine
iz on
in ny
im mer
ild a
il ity
ic a
ess ica
er ms
en el
enel ope
ee se
ce s
arl ings
ar ter
an es
am boo
V ery
T ime
S now
Mar ia
M abel
G eorge
A dam
?" ,
.. .
Ġwrap s
Ġwonder ing
Ġw id
Ġvan illa
Ġv ent
Ġte ased
Ġsunf lowers
Ġstro ll
Ġstore keeper
Ġsto pping
Ġstat ues
Ġsque al
Ġsqu ishy
Ġspong e
Ġspill s
Ġsome body
Ġsol ut
Ġsm arter
Ġslow ed
Ġsit u
Ġshark s
Ġse ven
Ġsa le
Ġreward ed
Ġrepe ating
Ġremind er
Ġre wards
Ġr umble
Ġr otting
Ġr isk
Ġqu acked
Ġpretend s
Ġpop s
Ġplan ning
Ġpl enty
Ġpen nies
Ġpec ked
Ġpanc akes
Ġown s
Ġown ers
Ġnightmare s
Ġneed les
Ġnecklace s
Ġn i
Ġmug s
Ġmosquito es
Ġmesmer ized
Ġmeow ing
Ġmark er
Ġmar ked
Ġknow ledge
Ġkno cks
Ġk ites
Ġinterest ed
Ġinstr um
Ġincre ased
Ġhor izon
Ġhall way
Ġgri p
Ġgre et
Ġgrass y
Ġg onna
Ġg erms
Ġg eese
Ġforget s
Ġflo ats
Ġflav ors
Ġexp ress
Ġe ch
Ġe arn
Ġdri pping
Ġdri ft
Ġdraw n
Ġd arlings
Ġcross ing
Ġcreat ing
Ġco coon
Ġclown s
Ġchoice s
Ġchirp ing
Ġchan ging
Ġca used
Ġc ott
Ġbu ses
Ġbo dies
Ġbath s
Ġband ages
Ġb amboo
Ġam ong
Ġaccompl ish
Ġa st
ĠW ant
ĠSp arky
ĠRu dy
ĠRob o
ĠR ub
ĠQuack y
ĠPaul ie
ĠO liver
ĠMe gan
ĠM ila
ĠM el
ĠK en
ĠJo anna
ĠJ ump
ĠJ an
ĠH op
ĠF ro
ĠF ishy
ĠE n
ĠD are
ĠChew y
ĠCh irp
ĠBrown ie
ĠBlue y
ĠB erry
ĠB ad
ĠA bb
we ed
ver s
u ppy
u el
th ough
s ses
rever se
pr int
ord inary
o ssible
it ude
im on
i ar
f us
f l
est ure
c ope
bb ly
and ra
an s
a uliflower
a a
Wh ich
S unny
Ru by
P ete
L iz
L isten
K eep
J erry
H oppy
H annah
Fred dy
Em ily
Dave y
Dan i
Bu zzy
B y
B ill
B aby
After wards
? '
Ġz ipping
Ġwid ened
Ġwe pt
Ġwarn ings
Ġus ually
Ġunt ied
Ġuniform s
Ġto dd
Ġtast ing
Ġsweet est
Ġsuff ered
Ġstud ents
Ġstern ly
Ġstar fish
Ġspe aking
Ġso fter
Ġsniff ing
Ġslow er
Ġslam med
Ġsing er
Ġsheet s
Ġsew ing
Ġsea weed
Ġscratch ing
Ġscoot ers
Ġrest ored
Ġresc uing
Ġrelax ing
Ġprov iding
Ġplay ers
Ġpip es
Ġpigeon s
Ġpengu ins
Ġpeel ed
Ġpedal ed
Ġpe ck
Ġn uzz
Ġme als
Ġman ners
Ġlight er
Ġlend ing
Ġl imes
Ġimp ossible
Ġguest s
Ġgrocer ies
Ġgl asses
Ġg esture
Ġfrown ing
Ġfork s
Ġfigure s
Ġend s
Ġech oed
Ġdig s
Ġdance s
Ġd ar
Ġcreat ivity
Ġcover ing
Ġconf ident
Ġcompetit ion
Ġcomfort ing
Ġca using
Ġc ash
Ġbr ushed
Ġbl own
Ġbeh avi
Ġbase ment
Ġban ged
Ġbackpack s
Ġan ger
Ġag e
Ġadult s
Ġact iv
Ġach ieved
ĠW ind
ĠTw o
ĠSp inny
ĠSm okey
ĠS usan
ĠS linky
ĠS leep
ĠS ari
ĠPe ep
ĠP uffy
ĠP retty
ĠP lay
ĠP er
ĠMiss ile
ĠM on
ĠM o
ĠM ichael
ĠM abel
ĠK ids
ĠJ ones
ĠF iona
ĠDani el
ĠC urious
ĠC ro
ĠC ra
ĠC indy
ĠC ara
ĠAl ong
ĠAl i
Ġ ĊĠ
y es
u ess
se l
rom ise
rn ie
rag on
ort h
ment s
m unk
m o
m as
l ings
l en
ip munk
immer ing
ight ing
ig ger
i bbit
fl akes
f reeze
ere my
c ited
au ra
at ur
ash a
ap s
air y
Z ip
W ake
V D
T ake
S ophie
S c
L illy
J ump
J ul
C ar
Al right
' ,
!âĢĿ .
Ġwound s
Ġwor n
Ġwobb ly
Ġwob ble
Ġwo lves
Ġwind y
Ġwas ting
Ġunt ie
Ġtray s
Ġtr igger
Ġtalent ed
Ġtable t
Ġta pped
Ġt ilt
Ġstud ent
Ġsto len
Ġst ung
Ġspike s
Ġspell s
Ġsour ce
Ġsolut ion
Ġsnow flakes
Ġsl ipping
Ġsh allow
Ġsew ed
Ġser ving
Ġsell er
Ġsec ure
Ġscore s
Ġscold s
Ġsatis fied
Ġrecor der
Ġraindr ops
Ġr ays
Ġprint ing
Ġple asure
Ġperform ing
Ġpay s
Ġpay ing
Ġpassen gers
Ġnest s
Ġmushroom s
Ġma iled
Ġlow ered
Ġle ap
Ġk ings
Ġint r
Ġin vent
Ġhid es
Ġhand ing
Ġh us
Ġguy s
Ġfro ze
Ġfreed om
Ġfor med
Ġfire s
Ġfight s
Ġfe ver
Ġf ain
Ġextra ordinary
Ġevery body
Ġencourage ment
Ġdrum s
Ġdrag ged
Ġdoll ars
Ġdo d
Ġdeterm ination
Ġdestro ying
Ġdesign s
Ġd ip
Ġcras hing
Ġcountry side
Ġcon s
Ġcomb ed
Ġcolor ed
Ġch ipmunk
Ġc oug
Ġc ages
Ġbury ing
Ġbur row
Ġbright est
Ġbracelet s
Ġbel oved
Ġbegin ning
Ġback ward
Ġavo id
Ġadd ress
Ġa imed
ĠW illy
ĠTwink le
ĠT ake
ĠSt acy
ĠPo or
ĠP erry
ĠN elly
ĠM an
ĠLo llie
ĠHe ad
ĠFl opsy
ĠE rnie
ĠE llen
ĠD ot
ĠD VD
ĠCo pper
ĠChrist mas
ĠC auliflower
ĠBird ie
ĠB ert
Ġ Yes
âĢ Ķ
z oom
z ing
z es
y ou
y ond
v y
us hing
un ity
t le
st y
s aw
ri e
qu et
print s
oun ce
ou quet
om b
om as
o ver
mb ers
ke lly
ix y
iss a
ig ued
id o
id i
ic i
em on
el ieve
e en
e ath
e aring
coura ged
c row
c c
as hed
al ph
a o
Un cle
T wo
R ibbit
N ear
M aggie
L ike
F or
Dani el
D ear
B ee
Ġz ippers
Ġy elp
Ġwill ing
Ġw ider
Ġvill ain
Ġvent ured
Ġus ual
Ġtwist ing
Ġtunnel s
Ġtrust ing
Ġtick les
Ġta pping
Ġt ar
Ġswims uit
Ġsw ords
Ġsw allow
Ġsurround ings
Ġsurf ed
Ġsupp lies
Ġstret ches
Ġst em
Ġsqueal ed
Ġsque ak
Ġspill ing
Ġsp ears
Ġsl apping
Ġsh oo
Ġsend ing
Ġscra ped
Ġscatter ing
Ġscare s
Ġscare crow
Ġsc en
Ġsail s
Ġsail ors
Ġs y
Ġs ib
Ġrow s
Ġrobb er
Ġrhythm s
Ġref lection
Ġrec ip
Ġrain s
Ġr usty
Ġpuzz led
Ġpr ove
Ġpour s
Ġpo ster
Ġout do
Ġn apped
Ġmodel s
Ġmeow s
Ġme mbers
Ġmask s
Ġlift ing
Ġlead s
Ġlay ing
Ġkn ots
Ġjug gle
Ġin j
Ġhum ming
Ġhang ers
Ġfrown s
Ġflap s
Ġfl apping
Ġfirm ly
Ġfart hest
Ġfa ct
Ġexpress ion
Ġexplo ded
Ġexplain s
Ġenjoy able
Ġduck ling
Ġdrive way
Ġdisturb ing
Ġdes pite
Ġd aring
Ġcrown s
Ġconnect ed
Ġcomplet ely
Ġcomet s
Ġcloud y
Ġcle ared
Ġcl ick
Ġchef s
Ġche ers
Ġch op
Ġch oo
Ġcelebr ating
Ġcash ier
Ġcart s
Ġc ertain
Ġbus iness
Ġbru ises
Ġben eath
Ġbeh aving
Ġbea ver
Ġbe yond
Ġb ouquet
Ġb omb
Ġas ide
Ġangel s
Ġafter wards
Ġactiv ities
Ġact ion
ĠZ ee
ĠWith out
ĠTo ot
ĠT ip
ĠSt retch
ĠSt ep
ĠSt art
ĠSnow man
ĠS kelly
ĠS imon
ĠP uppy
ĠP up
ĠP enelope
ĠNot hing
ĠN obody
ĠN e
ĠM ixy
ĠL i
ĠJ essica
ĠJ amie
ĠI zzy
ĠHelp ing
ĠH oney
ĠGra pe
ĠG ray
ĠG oose
ĠCl a
ĠC onnie
ĠBu ry
Ġ ouch
Ġ icing
âĢ ¦
y d
w ra
val ue
v il
unch ing
ue en
to ed
to ck
ron a
rona ut
r is
qu id
or ter
or re
nt il
le phant
ke nd
iver sity
itc ase
ill ed
il ities
ic ip
ho le
h il
f ia
ep i
em ies
e vin
e kend
d ers
co ver
b ird
b and
at form
am my
ak ayla
ad dy
ad die
a j
U nder
Tr ust
T eddy
Sh rink
R abbit
Q ueen
P lay
P ip
O live
N ice
M oo
M ay
Le ave
L ena
How ever
G uess
Ch loe
B ig
ĠâĢ ĺ
Ġyell s
Ġwra pping
Ġwhisp ers
Ġwh ined
Ġwh imp
Ġwe ekend
Ġtub es
Ġtreat ed
Ġtra ctor
Ġtodd ler
Ġtilt ed
Ġtid ied
Ġthread s
Ġthorn s
Ġtar get
Ġt y
Ġswan s
Ġsurf ing
Ġsu itcase
Ġstor ed
Ġst ool
Ġst itches
Ġsque aked
Ġspread ing
Ġspark s
Ġsnug gle
Ġsitu ation
Ġsib lings
Ġshort cut
Ġshin es
Ġshare s
Ġsh orter
Ġsh ady
Ġset s
Ġsepar ated
Ġscoop s
Ġscar ves
Ġsa n
Ġs ilk
Ġro ses
Ġriver s
Ġrever sed
Ġremind ing
Ġre ass
Ġr ushing
Ġr out
Ġque ens
Ġpurp ose
Ġprince sses
Ġpres ses
Ġpl atform
Ġpl ain
Ġpit s
Ġo dd
Ġnuzz led
Ġn ine
Ġmon ths
Ġmint s
Ġmagic ian
Ġm ir
Ġlong est
Ġlo ses
Ġlo cks
Ġli quid
Ġkind er
Ġkey hole
Ġk it
Ġjo ins
Ġitem s
Ġintr igued
Ġhus band
Ġhunt ers
Ġhuman s
Ġhead ing
Ġhaircut s
Ġg ul
Ġfore head
Ġfoot prints
Ġfiref ly
Ġfin al
Ġfill s
Ġfain t
Ġen emies
Ġearth worm
Ġe vil
Ġe ase
Ġdr own
Ġdoor way
Ġdo ck
Ġdinosaur s
Ġdeser ved
Ġdemand ing
Ġdar ling
Ġdam age
Ġd izz
Ġd et
Ġd a
Ġcub es
Ġcott age
Ġcop s
Ġcomplain ed
Ġcoll ap
Ġclos ing
Ġcl ues
Ġcelebr ation
Ġcap es
Ġc ous
Ġc orre
Ġbow s
Ġbother ed
Ġben ches
Ġbat hing
Ġast ronaut
Ġare n
Ġam ount
ĠTr ucky
ĠThank s
ĠT oys
ĠT ory
ĠT aking
ĠS weet
ĠS our
ĠS ophia
ĠS andra
ĠR icky
ĠR ia
ĠP op
ĠP l
ĠP epi
ĠOn ly
ĠN ut
ĠN ice
ĠN ear
ĠN ap
ĠM op
ĠM oo
ĠM indy
ĠLou ise
ĠLe ah
ĠL uckily
ĠK ind
ĠJon athan
ĠJ essie
ĠIs n
ĠH ank
ĠFro sty
ĠFl ash
ĠF ly
ĠF ido
ĠEn joy
ĠE x
ĠD oug
ĠD ay
ĠCo coa
ĠChe ss
ĠC ari
ĠBut ter
ĠBe a
ĠB rian
ĠB ess
ĠB ao
ĠB all
ĠAs h
ĠA choo
Ġ1 0
Ġ Queen
Ġ Okay
Ġ 2
w ise
ver al
v room
un es
ud ience
st orm
s en
ro ken
re g
r an
p aw
oth y
oo ly
mon y
m ine
le y
l ied
it s
it ely
is ions
is ies
io let
int ed
ine y
ile y
il iar
ig ning
ier ce
ien ced
icip ation
i bo
g ain
es pite
end ed
ec ord
e ve
e ow
m eow
c used
c at
b u
b s
b roken
b it
aw paw
at y
an sel
an ed
am ing
ale y
al y
ail s
ag ic
ag er
ad es
Z oomy
T ree
T ed
S u
R icky
P apa
M ilo
L izzy
K iki
K atie
K ate
J azz
H urry
Good night
G r
Fin ny
Fin n
F reeze
F l
E ven
D anger
Ch oo
C indy
C arl
Bet sy
B ounce
A nt
A lex
A bigail
A A
' ."
Ġzoom s
Ġyield ed
Ġwr it
Ġwr ink
Ġworry ing
Ġwhist les
Ġweapon s
Ġwa x
Ġwa king
Ġun wra
Ġtrust s
Ġtravel s
Ġtown s
Ġthrough out
Ġthr own
Ġth ud
Ġtest ed
Ġterri fied
Ġteaspoon s
Ġteam s
Ġt uck
Ġsymbol s
Ġsupport ing
Ġsupport ed
Ġsupp lied
Ġsnap s
Ġslap s
Ġskin ny
Ġsil ent
Ġse veral
Ġsand y
Ġsan k
Ġrun ner
Ġruin ing
Ġrobot s
Ġrel ief
Ġrace s
Ġr ust
Ġr oo
Ġr amp
Ġquack s
Ġpur rs
Ġpunish ment
Ġpo ppies
Ġpl ot
Ġph ones
Ġpe cks
Ġpalm s
Ġpa il
Ġp uff
Ġp ouch
Ġoy sters
Ġover come
Ġoutdo ors
Ġopp ort
Ġnervous ly
Ġneighb ours
Ġne are
Ġmo at
Ġmind ed
Ġmess ages
Ġmark ers
Ġmagn if
Ġliz ards
Ġlift s
Ġlesson s
Ġla ces
Ġl im
Ġknock ing
Ġjoin ing
Ġinvit ations
Ġin ter
Ġhow ever
Ġhis s
Ġheav ier
Ġgu ards
Ġgreet ed
Ġgig gles
Ġgarden er
Ġg ross
Ġg le
Ġfo cused
Ġflutter ed
Ġfl ip
Ġexper ienced
Ġexpect ing
Ġex cept
Ġevery day
Ġel bow
Ġed ges
Ġearn ed
Ġdro pping
Ġdri pped
Ġdress er
Ġdream t
Ġdis couraged
Ġdesign ed
Ġdec isions
Ġda isies
Ġd ie
Ġcut ter
Ġcream s
Ġcoop er
Ġcons ider
Ġcold er
Ġcl ue
Ġchew s
Ġbother ing
Ġbo nd
Ġblo cked
Ġbeep ed
Ġbeak s
Ġbat s
Ġba cked
Ġb itten
Ġaw oke
Ġarrow s
Ġant icipation
Ġannoy ing
Ġaccomplish ment
Ġa udience
ĠWill a
ĠW ooly
ĠW inky
ĠU ntil
ĠThe rmometer
ĠTh omas
ĠT abby
ĠSte ak
ĠSt ore
ĠSpark le
ĠSo cky
ĠSh ape
ĠSh adow
ĠS ay
ĠRu fus
ĠR ecord
ĠPrince ss
ĠP utter
ĠP iggy
ĠP ass
ĠP addy
ĠNut ty
ĠNap kin
ĠN ever
ĠMe i
ĠMe ena
ĠM oppy
ĠM ail
ĠJo sh
ĠJo ke
ĠJ oy
ĠI m
ĠH ilda
ĠH i
ĠGrand ad
ĠG ina
ĠFl uff
ĠFl ap
ĠF ighting
ĠEls ie
ĠEls a
ĠEl mo
ĠCla ire
ĠCl ay
ĠC lean
ĠC ell
ĠB ibo
ĠAm ir
ĠA va
Ġ 5
y ears
wel come
w is
us age
ur render
ur ity
ul pt
u zzy
t wo
s m
r at
rat ul
pp et
p it
p ing
p iece
oy al
oup le
ou ched
os ite
or ing
ong ratul
og er
o or
m atch
les cope
l t
k ip
izz es
iv i
itt ered
it ion
ing ly
ile s
il oo
ic ular
i ens
h ive
f lowers
end ing
ell e
el ix
e et
c ers
c ad
bu ild
b el
az or
atter ed
at re
at a
ast y
ass ie
ar mer
ant ha
an cy
amp oline
amp le
ad ish
ac ie
a usage
Tom orrow
T w
T illy
St eve
Some one
Sh ould
S weet
Rob bie
P andy
M on
M innie
L ia
Jul ie
G et
Fr ank
F ire
E at
C he
Be hind
B un
B oys
B op
? !"
, '
ĠâĢ Ķ
Ġy um
Ġwild flowers
Ġweed s
Ġweak er
Ġwater s
Ġwait er
Ġunpack ing
Ġun fortunately
Ġtwirl ing
Ġtw eet
Ġtrem bled
Ġtree house
Ġtravell ing
Ġtr ampoline
Ġtip toed
Ġtight er
Ġthe atre
Ġtemp er
Ġte lescope
Ġsw ap
Ġsurf board
Ġstro ke
Ġstream ers
Ġstand s
Ġsquee zing
Ġsprink le
Ġspoon ful
Ġsp ins
Ġsnow y
Ġsmell ing
Ġsl ed
Ġskirt s
Ġsiren s
Ġsign ed
Ġshrug s
Ġshr ank
Ġsh all
Ġse ated
Ġse as
Ġse als
Ġsc ulpt
Ġsc re
Ġsc amp
Ġroo ster
Ġreward ing
Ġresp ond
Ġregret ted
Ġre build
Ġr ather
Ġpu ppies
Ġpu ppet
Ġprop het
Ġpro d
Ġprevent ed
Ġpress ing
Ġprep aring
Ġpray ing
Ġpow ders
Ġpo pping
Ġpicnic s
Ġpedal ing
Ġpassport s
Ġpart icular
Ġpan s
Ġopp osite
Ġon line
Ġneat ly
Ġne cks
Ġn asty
Ġmoon light
Ġmir ac
Ġmind s
Ġmateri als
Ġmap s
Ġman ager
Ġmagaz ines
Ġladyb ird
Ġl ilies
Ġjet s
Ġinvit es
Ġin sp
Ġhonk s
Ġhon king
Ġhis ses
Ġhesit ant
Ġheel s
Ġheart broken
Ġha bit
Ġgroup s
Ġgood ies
Ġglad ly
Ġgl ued
Ġghost s
Ġgaz ing
Ġg aps
Ġfo am
Ġfam iliar
Ġf oggy
Ġf itting
Ġex ample
Ġer ase
Ġdriver s
Ġdrift ed
Ġdiscuss ing
Ġdis ob
Ġdet ails
Ġdes per
Ġdeliver ing
Ġde ed
Ġdan cers
Ġcur l
Ġcrocodile s
Ġcream y
Ġcorn ers
Ġconnect ion
Ġcon vers
Ġclean s
Ġclean er
Ġchocol ates
Ġchipmunk s
Ġc ouple
Ġbump ing
Ġbu d
Ġbleed s
Ġbl ast
Ġbicy cles
Ġbelt s
Ġbelong ings
Ġbell s
Ġbehavi or
Ġbee hive
Ġb ully
Ġb orn
Ġatt itude
Ġal iens
Ġaff ect
Ġac he
Ġa im
ĠY et
ĠWoof y
ĠW ise
ĠW inter
ĠT ry
ĠT able
ĠS eth
ĠS ausage
ĠS al
ĠRe ady
ĠR usty
ĠR oy
ĠR azor
ĠP iney
ĠP awpaw
ĠP arky
ĠP am
ĠOr ange
ĠN orth
ĠN avy
ĠMike y
ĠM addie
ĠK ai
ĠJ une
ĠJ ug
ĠJ u
ĠHe llo
ĠF unny
ĠF ish
ĠF ierce
ĠF elix
ĠEx cited
ĠE lephant
ĠD ragon
ĠD ictionary
ĠC ol
ĠC ir
ĠC ici
ĠC assie
ĠBu bbly
ĠBr uce
ĠBee f
ĠAunt ie
ĠA ri
âĢĿ ,
y l
yl v
ylv ia
y a
wh ile
w ell
v i
und red
un Bun
ump s
u pt
u ke
t he
ro ccoli
rm ie
ree ch
re nt
ray s
r or
pe ople
p o
p ilot
p en
p an
oun ced
ot y
or ful
op her
on k
om p
om ach
o ot
o iled
nd y
lo ck
la ire
ither ed
is he
ishe k
ini er
ig gled
ice s
ic ation
i ya
h ishek
f ive
ey ed
ern ard
elly fish
ed ication
dd ing
d aughter
cher s
cc as
cad a
cada bra
c ount
c al
c a
bra cadabra
br other
bb ling
bb a
b hishek
b ec
as ured
as mine
are t
ar row
an ie
allow een
aff le
ad ually
ab ella
a ven
a ct
T weet
T erry
S lowly
Rob by
R oo
P r
P ipp
O O
N ick
Miss y
Me gan
M other
M ore
M ake
M akayla
K im
Jo lly
J on
J essie
I m
He idi
H oney
F riend
Ew w
Do es
D avid
Cl ara
Ch irp
C o
C laire
C athy
B o
B ess
B ang
A m
Ġy umm
Ġwrit er
Ġwra pper
Ġwo ken
Ġwith in
Ġwindows ill
Ġwin ners
Ġwho ever
Ġwhisper ing
Ġwa nna
Ġwa dd
Ġvi br
Ġup side
Ġu nd
Ġty pe
Ġtre asured
Ġtr otted
Ġtowns people
Ġto pp
Ġthick er
Ġtempt ed
Ġsweat y
Ġsuccess fully
Ġstrong est
Ġstri king
Ġstor k
Ġstamp ed
Ġstain s
Ġst acked
Ġsque aky
Ġspeak er
Ġsp at
Ġso ot
Ġsn uck
Ġsn ort
Ġsmart est
Ġsm ashed
Ġslice s
Ġsing le
Ġsimp ly
Ġsil ently
Ġshr unk
Ġsh inier
Ġsh ame
Ġsel f
Ġsec urity
Ġsculpt ure
Ġscamp ered
Ġsa cks
Ġrubb ish
Ġrobb ers
Ġrip s
Ġreturn ing
Ġrespon se
Ġres pected
Ġrecommend ed
Ġra ising
Ġr umbling
Ġr ack
Ġquiet er
Ġquarrel ed
Ġqu izzes
Ġpri zes
Ġpray ers
Ġplan s
Ġpeel s
Ġpark s
Ġpadd ling
Ġowl s
Ġord ers
Ġo ccas
Ġno dding
Ġni bbled
Ġn ur
Ġn atur
Ġmove ments
Ġmis ch
Ġmirac le
Ġmem ber
Ġmelon s
Ġmed als
Ġmay or
Ġmateri al
Ġmaster piece
Ġmark ing
Ġloud est
Ġlim its
Ġlick ing
Ġle vel
Ġl ent
Ġke en
Ġk illed
Ġinstrum ents
Ġinstrum ent
Ġinsp ired
Ġignor ing
Ġhoney com
Ġhe ight
Ġhat ched
Ġhands ome
Ġh our
Ġgu ide
Ġgrand daughter
Ġgo bble
Ġglitter ing
Ġgl ittered
Ġgl immering
Ġgarden s
Ġfox es
Ġforgive s
Ġfor ce
Ġflo ck
Ġflas hing
Ġfl own
Ġfa ith
Ġexplore r
Ġenthusia sm
Ġdri p
Ġdress ing
Ġdoor step
Ġdon key
Ġdiscuss ed
Ġdisapp earing
Ġdirt ier
Ġdes igning
Ġdelay ing
Ġd edication
Ġcur rent
Ġcryst als
Ġcre ations
Ġcra cks
Ġcous in
Ġcount ries
Ġcorre ctly
Ġcooper ate
Ġconvers ations
Ġcolour ed
Ġcollap sed
Ġcloth s
Ġclear ly
Ġcho sen
Ġcheck out
Ġche ating
Ġche at
Ġchalk s
Ġcar ries
Ġcamel s
Ġbuy ing
Ġbreat hed
Ġbrave st
Ġbra id
Ġbo omed
Ġbelie ving
Ġbe aming
Ġbat tle
Ġaw are
Ġatt ack
Ġastronaut s
Ġar ran
Ġapolog ised
Ġaf ar
Ġadmir ation
Ġab ility
ĠWho ever
ĠWh ich
ĠW ell
ĠW affle
ĠV ivi
ĠV iolet
ĠUn iversity
ĠTy ler
ĠTr usty
ĠTom orrow
ĠTom ee
ĠTo e
ĠThe rmie
ĠT iya
ĠT ell
ĠT ay
ĠSt an
ĠSpe ed
ĠSp oiled
ĠSp iny
ĠSp aghetti
ĠSo oty
ĠSo fia
ĠSh ow
ĠSh are
ĠSee ing
ĠSam antha
ĠRo d
ĠRain bow
ĠR uffy
ĠR oger
ĠR ing
ĠR el
ĠR alph
ĠPr une
ĠPr int
ĠPlay ing
ĠPer ky
ĠPat ty
ĠPass port
ĠP ick
ĠOther wise
ĠO xy
ĠN ight
ĠM ore
ĠM ick
ĠM acie
ĠL uke
ĠL oyal
ĠL on
ĠL ina
ĠL iloo
ĠL ia
ĠL emon
ĠL aura
ĠK evin
ĠK aty
ĠJon ny
ĠJ eremy
ĠJ ellyfish
ĠJ eep
ĠJ ay
ĠI an
ĠHug s
ĠHer b
ĠH urry
ĠH alloween
ĠH airy
ĠF uzzy
ĠF urry
ĠF ix
ĠF armer
ĠE ating
ĠDave y
ĠDani ella
ĠD ust
ĠD ull
ĠD espite
ĠD eal
ĠCl umsy
ĠCl imb
ĠCir cle
ĠCh ick
ĠCar rie
ĠBob bie
ĠBe be
ĠBe am
ĠB roccoli
ĠB elle
ĠB elieve
ĠAm anda
ĠAbb ot
ĠAbb ie
ĠA pp
Ġ Quick
Ã ±
Ã± ata
yd ney
wh at
w oof
w are
ve y
ust om
urt les
up id
undred s
un ched
ump kin
uff in
ud ged
uc as
th ree
st alk
so l
sh aped
sh adow
se ss
s sess
s a
ri ck
res pect
re pe
repe at
ra ck
r us
r upt
r up
pt op
ow el
or king
ongratul ated
on i
o llen
n gest
n ap
m ered
ll e
le st
ld ie
l ike
k ie
ive s
iss y
iron ment
ins ed
ill er
ight y
ig hing
ie ves
idge y
ic iest
i Ã±ata
i ven
heart ed
h ile
gu ard
en ing
em pt
ek a
d og
cover ed
count ered
co ck
by es
bell e
bec ca
be h
ball s
b age
ay bird
arp er
ar les
ar ger
ant s
angu age
an while
an ne
an ced
am s
al th
ad ing
ad dle
ac ing
Y ield
Wh ose
Wh istle
W iggly
W ant
Tw ink
T oo
Su zie
Sp ark
S plash
S kip
S asha
R ain
R achel
Pr ince
Pe pper
P romise
On ly
O oh
Not hing
N ever
L ulu
L ucky
L inda
K aren
J acob
Hi ppy
H mm
Fr oggy
E ric
E lly
E l
E P
E EP
D ino
D eal
C ara
Bird y
Be ing
B eth
Al ways
Ah h
A unt
A bracadabra
A bby
.' "
Ġyumm iest
Ġyou ngest
Ġwobble s
Ġwis hing
Ġwh ipped
Ġwe ighing
Ġwe alth
Ġwas hes
Ġwarm ly
Ġwal rus
Ġvehic les
Ġun z
Ġtwist s
Ġtwirl s
Ġtwink led
Ġtri pping
Ġtoss ed
Ġtong ues
Ġtip s
Ġthunder storm
Ġth ieves
Ġtempt ing
Ġtap ed
Ġtal ents
Ġt umbling
Ġsy rup
Ġswim mer
Ġsweet ly
Ġswe ep
Ġsw ollen
Ġstrip s
Ġste ering
Ġstack s
Ġstack ing
Ġst all
Ġspin ner
Ġspell ed
Ġspeed y
Ġsp ies
Ġsp ed
Ġsoft ened
Ġsoap y
Ġso aking
Ġsneak s
Ġsleep over
Ġsk unk
Ġsilk y
Ġshovel s
Ġshoo ed
Ġship s
Ġsh own
Ġsh ave
Ġscen e
Ġsc reech
Ġsc aly
Ġsad der
Ġsa v
Ġs ou
Ġs ill
Ġrow boat
Ġrisk s
Ġright ful
Ġresult s
Ġremind s
Ġrecip e
Ġreass ured
Ġread er
Ġrail s
Ġr otten
Ġr insed
Ġpur ring
Ġprotect ion
Ġpr og
Ġpr ank
Ġpot ion
Ġpony t
Ġpo ssess
Ġple as
Ġple aded
Ġplay house
Ġpl ugged
Ġpin ches
Ġpeace fully
Ġpea cock
Ġpe w
Ġpart ner
Ġp iÃ±ata
Ġostri ches
Ġopport unity
Ġnur ses
Ġnight s
Ġnet s
Ġneare st
Ġnear ly
Ġnatur al
Ġn iece
Ġmum s
Ġmess ed
Ġmes ses
Ġmeadow s
Ġmail ing
Ġma c
Ġm unching
Ġm ate
Ġm ain
Ġlo cal
Ġlife guard
Ġleap t
Ġlean s
Ġle aped
Ġle aking
Ġla va
Ġla ptop
Ġl ush
Ġl imp
Ġl arger
Ġkn ives
Ġjoy fully
Ġjoy ful
Ġjewel er
Ġjeep s
Ġjacket s
Ġj aybird
Ġj ars
Ġinj ured
Ġinch worm
Ġin ches
Ġhum med
Ġhope less
Ġhoneycom b
Ġheav ily
Ġheal th
Ġhard est
Ġhar mony
Ġhalf way
Ġhair brush
Ġgul p
Ġgrace fully
Ġgra ins
Ġgr anny
Ġgo bbled
Ġgle e
Ġgl ided
Ġgar bage
Ġg room
Ġg ates
Ġfour th
Ġforg iven
Ġfore shadow
Ġfo cus
Ġflutter ing
Ġfascin ating
Ġfarm ers
Ġfan s
Ġfa cing
Ġenv ironment
Ġeng ines
Ġend ings
Ġen countered
Ġeffort s
Ġe ld
Ġdust pan
Ġdrown ed
Ġdoor bell
Ġdizz ier
Ġdisappoint ment
Ġdis respect
Ġdef in
Ġdam aged
Ġd ump
Ġcut est
Ġcurious ly
Ġcrow ded
Ġcricket s
Ġcr uel
Ġcr ouched
Ġcoug hing
Ġcoug hed
Ġcop ied
Ġcoo lest
Ġco d
Ġcod e
Ġclub s
Ġcir c
Ġchoo sing
Ġcher ished
Ġcher ish
Ġcheap er
Ġcertain ly
Ġcell s
Ġcable s
Ġc ustom
Ġc rew
Ġc oral
Ġc ongratulated
Ġbur nt
Ġbu nd
Ġbo lt
Ġbell ies
Ġbeet les
Ġbean stalk
Ġbea st
Ġbe ating
Ġban ner
Ġback s
Ġba a
Ġb less
Ġaw hile
Ġautomobile s
Ġatt empt
Ġappro ach
Ġapp ears
Ġallow ing
Ġal though
Ġairpl anes
Ġaff ord
Ġadd s
Ġab ilities
ĠWh ale
ĠWe st
ĠW ork
ĠW addle
ĠV room
ĠU se
ĠTuesday s
ĠTo ad
ĠTim othy
ĠT uffy
ĠT owel
ĠStart led
ĠSt omach
ĠSn ake
ĠSh iny
ĠSc ott
ĠSam son
ĠS asha
ĠS age
ĠRo llie
ĠR uff
ĠR eka
ĠR adish
ĠPo kie
ĠPer cy
ĠPaul ine
ĠP ack
ĠNe igh
ĠMouse y
ĠMar ch
ĠM iller
ĠM ighty
ĠM atch
ĠLook ing
ĠLo ck
ĠLiz a
ĠLime y
ĠLe wis
ĠL ance
ĠL a
ĠJo el
ĠI vy
ĠI ndy
ĠHoot y
ĠHo pper
ĠH ansel
ĠGo ldie
ĠG reg
ĠG illy
ĠFriend ship
ĠFr idgey
ĠF ind
ĠF ace
ĠE at
ĠDo es
ĠD ress
ĠCol orful
ĠCl ose
ĠCh ucky
ĠCat s
ĠC ook
ĠC one
ĠC amp
ĠB unBun
ĠB ernard
ĠB arrel
ĠAnna bel
ĠAm elia
ĠA lly
ĠA bhishek
Ġ ill
Ġ Yay
Ġ Oh
y an
vin ced
v o
ur ly
un ged
ump ier
ul f
u ses
th at
ter s
t ool
t led
t ick
t here
ster ed
st r
st op
sh op
sc reen
s nap
s ister
r um
r ug
r ude
r ough
pp ity
po ison
p y
ouse l
ous y
ou ble
ot ato
os cope
ort unately
oo sh
oo ked
ond on
on ut
on ished
on ia
o ey
ny thing
not ty
m ates
ll s
ll ing
ke st
k a
j o
iz a
it i
it a
ist s
ing er
inger b
ingerb read
in ning
in ations
il son
ig ers
h aw
h and
get ic
ger y
g iving
form ed
f ound
f ly
eth oscope
ert rude
d est
cut ter
c onut
c ie
c ent
c an
bo ards
b ars
b aa
atur day
at ive
at itude
as ers
art in
art ed
arn ey
are fully
ara h
ara c
ar vey
ant astic
ans formed
ang le
and el
an ish
am al
al an
Z oe
Y esterday
Will ow
Twink le
To dd
T una
T ry
T ia
St art
S ylvia
S ophia
S leep
S ince
S ari
Ru dy
R osie
R ing
R ed
Pipp in
P hil
P aws
Ow l
Out side
O pen
N ancy
Mike y
M o
M ichael
M any
M ail
M ai
L izzie
L ina
L aura
K ip
K ids
K en
J et
J eremy
J an
J amie
J amal
I ce
Gr anny
F ind
E ver
E va
D r
D izzy
C ool
C lean
Bob bie
Be a
B rian
B less
B ert
Ah oy
A w
5 5
- -
Ġy uck
Ġwr iggled
Ġwork shop
Ġwood cutter
Ġwind ing
Ġwig gles
Ġwhimp ering
Ġwhimp ered
Ġwh irl
Ġwh ine
Ġweb s
Ġwadd led
Ġvisit s
Ġunwra p
Ġund one
Ġtravel ing
Ġtrail s
Ġtr ansformed
Ġth ump
Ġtest s
Ġtent s
Ġtemper ature
Ġtap s
Ġtank s
Ġt ying
Ġt urtles
Ġt umbled
Ġt igers
Ġt ant
Ġswimsuit s
Ġsweet er
Ġsw itches
Ġsur gery
Ġsun screen
Ġsun s
Ġsuggest ion
Ġstroll er
Ġstr um
Ġstomach s
Ġstain ed
Ġst ethoscope
Ġsqu ished
Ġsqu inted
Ġsprink led
Ġspr ung
Ġspr out
Ġspeak s
Ġspace s
Ġsp y
Ġsp are
Ġsol ving
Ġsoft est
Ġso bbing
Ġsmo ked
Ġsleep s
Ġsl ithered
Ġsick ness
Ġshore line
Ġsh immering
Ġseas he
Ġscre ens
Ġscratch y
Ġscar ier
Ġsc ent
Ġs inking
Ġs ens
Ġrust ling
Ġrun ny
Ġru by
Ġrout ine
Ġrout e
Ġro be
Ġri bbit
Ġrespons ib
Ġrespect ing
Ġresist ed
Ġreply ing
Ġrepe ats
Ġrecor ds
Ġrecip es
Ġre app
Ġrat s
Ġr umbled
Ġr ises
Ġquick er
Ġpuff ed
Ġprog ress
Ġpri v
Ġpresent ed
Ġpra ise
Ġponyt ail
Ġpoison ous
Ġpo ses
Ġplant ing
Ġpl ank
Ġpill s
Ġpers u
Ġpat ches
Ġpassen ger
Ġparticular ly
Ġpant ry
Ġpair s
Ġpain ful
Ġpack ages
Ġp ounced
Ġorder ing
Ġon ions
Ġnot icing
Ġni bble
Ġne ighed
Ġmu stered
Ġmotorcy cles
Ġmon th
Ġmom ma
Ġmo les
Ġmo ld
Ġmix es
Ġmelt s
Ġmean ing
Ġmate y
Ġmat s
Ġmar vel
Ġmagnif ying
Ġm oo
Ġluck ily
Ġlight ly
Ġli f
Ġli es
Ġlearn er
Ġlamp s
Ġl ull
Ġinter rupt
Ġinsist ing
Ġinj u
Ġimag inations
Ġhurt ful
Ġhot ter
Ġhor ror
Ġhook s
Ġhonest y
Ġho ver
Ġhe aven
Ġhandle bars
Ġhand y
Ġh undreds
Ġgum balls
Ġguard ing
Ġgro aned
Ġgr umpier
Ġgr umbled
Ġgr atitude
Ġgood byes
Ġgl ide
Ġgasp s
Ġg oo
Ġg ingerbread
Ġfresh ly
Ġfreez ing
Ġfort s
Ġforest s
Ġfo nd
Ġflood ed
Ġflas hes
Ġfl ips
Ġfence s
Ġf ulf
Ġf antastic
Ġexam ining
Ġer asers
Ġener getic
Ġdoll house
Ġdoll ar
Ġdod ging
Ġdisob eyed
Ġdisgust ed
Ġdisagre ement
Ġdifferent ly
Ġdesper ate
Ġdefin itely
Ġdecor ation
Ġdec l
Ġd ate
Ġd andel
Ġcur ve
Ġcrow s
Ġcro aked
Ġcro ak
Ġcre ak
Ġcrack ing
Ġcontin uing
Ġcontain ed
Ġconsider ate
Ġcon vinced
Ġcomp romise
Ġcomp are
Ġcomm unity
Ġcomm and
Ġcomb ing
Ġcom mon
Ġcolor ing
Ġco sy
Ġco nd
Ġco conut
Ġcl ut
Ġcho pped
Ġchirp s
Ġche ated
Ġch in
Ġch arac
Ġcar ousel
Ġcapt ured
Ġbur ger
Ġbull ies
Ġbuild er
Ġbuck led
Ġbrus hing
Ġbreath s
Ġbread s
Ġbounce s
Ġborrow ed
Ġbl amed
Ġbit s
Ġbird house
Ġbehavi our
Ġbeep s
Ġbang s
Ġb un
Ġb uddy
Ġaw ful
Ġat op
Ġart work
Ġarran ged
Ġapolog izing
Ġallow ance
Ġal oud
Ġagree ing
Ġaeropl anes
Ġachieve ment
Ġaccompl ished
Ġaccident s
ĠZ oey
ĠW ilson
ĠV era
ĠTr ouble
ĠTim e
ĠT ap
ĠSunday s
ĠStep h
ĠShape y
ĠS ydney
ĠS low
ĠS ince
ĠS aturday
ĠRo xy
ĠRel iable
ĠR yan
ĠR ude
ĠR ita
ĠR ingo
ĠR avi
ĠQuick ly
ĠPick les
ĠPe bbles
ĠPaul ina
ĠP otato
ĠP hil
ĠP ark
ĠOw en
ĠNight mare
ĠNick i
ĠMon a
ĠMar ie
ĠMar cy
ĠM s
ĠM agic
ĠL ucas
ĠL oop
ĠL enny
ĠL and
ĠK notty
ĠK it
ĠK iss
ĠJu ice
ĠJo die
ĠJo anne
ĠJ et
ĠJ ason
ĠJ asmine
ĠH ook
ĠH aley
ĠH a
ĠG ia
ĠG erry
ĠG arry
ĠFl utter
ĠF reeze
ĠF arah
ĠEvery body
ĠEl iza
ĠE va
ĠE ric
ĠDon na
ĠDon key
ĠDog go
ĠDan cing
ĠCro cky
ĠCro c
ĠCra bby
ĠCra b
ĠCook ies
ĠClay man
ĠCl oud
ĠCl are
ĠCar rot
ĠCar oline
ĠCar ol
ĠC urly
ĠC elia
ĠBig gy
ĠB umpkin
ĠB oppy
ĠB irthday
ĠB arry
ĠAn other
ĠAmir a
ĠAl though
Ġ âĢĿ
Ġ icky
yd r
ydr ant
x ophone
w orking
w ar
vent ure
v ince
v als
us ion
urry ing
urch ase
ur ger
unt ed
um ed
ul iar
uct ion
u dy
th is
t alk
st antly
st and
ss ib
sh irt
s ite
s ers
rr rrr
row ing
ring e
ri er
ret t
ren ch
reat ive
ream s
re st
re m
ra ve
ra in
r t
r rr
r own
r ous
r ily
pl oy
ploy ee
pe w
p s
p op
or i
op ed
oo h
ol iday
ob e
ob ble
o pped
o ard
ng el
nd rous
n ings
mb ie
ma ster
m ill
lo or
lo cks
llow ed
ll as
le ct
le asing
l ass
ject s
j est
jest ic
iv ated
it ive
it ched
it am
ise ase
is her
ir ate
int ing
ing ling
im ents
ill i
ild ren
if ully
if act
ient ist
ie vous
ie ving
id ney
id dy
id den
id a
ic key
ic ious
ic ent
ic ated
ic ate
i bbles
he w
gl ub
gg les
gg ies
gan izing
g aret
fa ction
f low
f ived
f ire
ex it
et work
et ime
er ina
em ma
el ing
ede e
e w
e eling
e edee
e at
d venture
d on
d ate
d a
ct o
cream s
co s
cl oth
chan ged
ch ant
ce ss
br an
bran ch
beh aved
b urger
b ling
b arrow
b ang
at ilda
ast ly
as hes
art y
ar rot
ar ley
any a
ant ic
an ley
an ion
amp ion
aj a
ag ine
ad mill
ace y
ab ly
a nder
Z ero
Z ara
Who a
W ally
V era
U p
To ot
T oy
T hing
T essa
T ara
St anley
Sh ine
S pe
S m
S ay
Ru fus
R rrrrr
R alph
R R
R A
Pe ople
Paul ie
P ush
P oor
P enny
O ink
O P
N ana
Me anwhile
M ittens
M artha
L ori
L ion
L emon
L a
L E
K erry
Jul iet
Jon athan
J ug
J ordan
Is n
In stead
I an
H o
H aley
Gra b
G row
G ogo
G obble
G ina
G igi
Fl ash
F ortunately
F iona
F ather
Ex cited
Do ctor
D ara
Co co
Ch arles
C r
C ow
C ount
C amp
B rrr
B ingo
B all
B ack
B aa
A rrr
A pril
A gain
?âĢĿ .
? !
' ?"
! âĢĻ
Ġyelp s
Ġyaw ning
Ġwrist s
Ġwrink led
Ġwre cks
Ġwonder land
Ġwobb ling
Ġwo ndrous
Ġwind s
Ġwig gly
Ġwheel barrow
Ġwh izz
Ġwh ines
Ġwh ales
Ġwelc oming
Ġwater y
Ġwarn s
Ġwarm er
Ġwarm ed
Ġwalk ie
Ġvisit ors
Ġvillain s
Ġvibr ant
Ġve ggies
Ġvac u
Ġv itam
Ġuse less
Ġunwra pped
Ġunt angled
Ġunlo ad
Ġunk ind
Ġunf air
Ġun less
Ġun ison
Ġun covered
Ġumbre llas
Ġu na
Ġtrust y
Ġtrunk s
Ġtre admill
Ġtopp ings
Ġto ne
Ġtim id
Ġtick ing
Ġtease s
Ġtant rum
Ġtake out
Ġta cos
Ġt unes
Ġsy ringe
Ġswirl ed
Ġsway ed
Ġsw apped
Ġsur ge
Ġsupply ing
Ġsub jects
Ġstrip ed
Ġstrike s
Ġstr ay
Ġstom ping
Ġstir s
Ġste pping
Ġst ur
Ġsque aking
Ġsqu aw
Ġspray s
Ġspr ings
Ġspo ken
Ġspeed s
Ġspeed ed
Ġsp ool
Ġsp ices
Ġsp ades
Ġsoot hing
Ġso ars
Ġsnort ed
Ġsmo king
Ġsk ating
Ġsitu ations
Ġsign al
Ġside ways
Ġshort s
Ġsho ots
Ġshield s
Ġsharp ened
Ġsh attered
Ġserious ly
Ġser ver
Ġseashe ll
Ġseagull s
Ġse ction
Ġscr unched
Ġscr ub
Ġscen ery
Ġsc urrying
Ġsc ri
Ġsc ientist
Ġsatis faction
Ġsandcast les
Ġsa xophone
Ġs izz
Ġs ite
Ġro am
Ġring master
Ġrever sing
Ġreveal ing
Ġresponsib ility
Ġrespond ed
Ġresist ing
Ġrepl acing
Ġregular ly
Ġrefres hing
Ġreal izes
Ġre sol
Ġre ly
Ġre leasing
Ġre el
Ġra king
Ġra ked
Ġr owed
Ġr ash
Ġquestion ed
Ġquack ing
Ġqu itting
Ġprom ising
Ġprod uct
Ġpost man
Ġpossess ion
Ġpol itely
Ġpoke s
Ġpo ssib
Ġplay fully
Ġplay date
Ġpl ucked
Ġpl opped
Ġpizz as
Ġpet ting
Ġpersu ade
Ġpeek s
Ġpec uliar
Ġpat ting
Ġpart ing
Ġpart ed
Ġpan icked
Ġp urchase
Ġp uffy
Ġp ins
Ġp asses
Ġown ing
Ġoutfit s
Ġon ward
Ġoffer ing
Ġocean s
Ġoccas ion
Ġobey ed
Ġnew found
Ġnest led
Ġne ared
Ġn or
Ġmust aches
Ġmusic al
Ġmum bling
Ġmot ions
Ġmor nings
Ġmisch ievous
Ġmind ing
Ġmind ful
Ġmill ion
Ġmill er
Ġmilk man
Ġmess ier
Ġmesmer ised
Ġmeet ings
Ġmass ages
Ġmagnif icent
Ġma jestic
Ġm ur
Ġm ood
Ġm il
Ġlull aby
